{"<|endoftext|>":0,"<|im_start|>":1,"<|im_end|>":2,"!":3,"\"":4,"#":5,"$":6,"%":7,"&":8,"'":9,"(":10,")":11,"*":12,"+":13,",":14,"-":15,".":16,"/":17,"0":18,"1":19,"2":20,"3":21,"4":22,"5":23,"6":24,"7":25,"8":26,"9":27,":":28,";":29,"<":30,"=":31,">":32,"?":33,"@":34,"A":35,"B":36,"C":37,"D":38,"E":39,"F":40,"G":41,"H":42,"I":43,"J":44,"K":45,"L":46,"M":47,"N":48,"O":49,"P":50,"Q":51,"R":52,"S":53,"T":54,"U":55,"V":56,"W":57,"X":58,"Y":59,"Z":60,"[":61,"\\":62,"]":63,"^":64,"_":65,"`":66,"a":67,"b":68,"c":69,"d":70,"e":71,"f":72,"g":73,"h":74,"i":75,"j":76,"k":77,"l":78,"m":79,"n":80,"o":81,"p":82,"q":83,"r":84,"s":85,"t":86,"u":87,"v":88,"w":89,"x":90,"y":91,"z":92,"{":93,"|":94,"}":95,"~":96,"¡":97,"¢":98,"£":99,"¤":100,"¥":101,"¦":102,"§":103,"¨":104,"©":105,"ª":106,"«":107,"¬":108,"®":109,"¯":110,"°":111,"±":112,"²":113,"³":114,"´":115,"µ":116,"¶":117,"·":118,"¸":119,"¹":120,"º":121,"»":122,"¼":123,"½":124,"¾":125,"¿":126,"À":127,"Á":128,"Â":129,"Ã":130,"Ä":131,"Å":132,"Æ":133,"Ç":134,"È":135,"É":136,"Ê":137,"Ë":138,"Ì":139,"Í":140,"Î":141,"Ï":142,"Ð":143,"Ñ":144,"Ò":145,"Ó":146,"Ô":147,"Õ":148,"Ö":149,"×":150,"Ø":151,"Ù":152,"Ú":153,"Û":154,"Ü":155,"Ý":156,"Þ":157,"ß":158,"à":159,"á":160,"â":161,"ã":162,"ä":163,"å":164,"æ":165,"ç":166,"è":167,"é":168,"ê":169,"ë":170,"ì":171,"í":172,"î":173,"ï":174,"ð":175,"ñ":176,"ò":177,"ó":178,"ô":179,"õ":180,"ö":181,"÷":182,"ø":183,"ù":184,"ú":185,"û":186,"ü":187,"ý":188,"þ":189,"ÿ":190,"Ā":191,"ā":192,"Ă":193,"ă":194,"Ą":195,"ą":196,"Ć":197,"ć":198,"Ĉ":199,"ĉ":200,"Ċ":201,"ċ":202,"Č":203,"č":204,"Ď":205,"ď":206,"Đ":207,"đ":208,"Ē":209,"ē":210,"Ĕ":211,"ĕ":212,"Ė":213,"ė":214,"Ę":215,"ę":216,"Ě":217,"ě":218,"Ĝ":219,"ĝ":220,"Ğ":221,"ğ":222,"Ġ":223,"ġ":224,"Ģ":225,"ģ":226,"Ĥ":227,"ĥ":228,"Ħ":229,"ħ":230,"Ĩ":231,"ĩ":232,"Ī":233,"ī":234,"Ĭ":235,"ĭ":236,"Į":237,"į":238,"İ":239,"ı":240,"Ĳ":241,"ĳ":242,"Ĵ":243,"ĵ":244,"Ķ":245,"ķ":246,"ĸ":247,"Ĺ":248,"ĺ":249,"Ļ":250,"ļ":251,"Ľ":252,"ľ":253,"Ŀ":254,"ŀ":255,"Ł":256,"ł":257,"Ń":258,"ä¸":259,"ï¼":260,"çļ":261,"çļĦ":262,"ï¼Į":263,"ãĢ":264,"ãĢĤ":265,"äº":266,"ä»":267,"åı":268,"æľ":269,"è¿":270,"æĪ":271,"åħ":272,"ä½":273,"æĺ":274,"å¤":275,"im":276,"|>":277,"<|":278,"è¯":279,"ä¸Ģ":280,"æĸ":281,"å®":282,"çĶ":283,"åĪ":284,"åĴ":285,"åľ":286,"åĴĮ":287,"åĲ":288,"åĬ":289,"ç»":290,"ä¹":291,"æĺ¯":292,"å°":293,"åŃ":294,"ä¸ª":295,"ä»¥":296,"è®":297,"ãĢģ":298,"æĪĳ":299,"åľ¨":300,"äºº":301,"ĥ½":302,"ar":303,"en":304,"st":305,"art":306,"end":307,"start":308,"æľī":309,"ï¼ļ":310,"æĹ":311,"äºĨ":312,"åı¯":313,"è¿Ļ":314,"åĽ":315,"æĿ":316,"åº":317,"éĩ":318,"å¹":319,"å¸":320,"ä¸Ń":321,"ä¼":322,"éĢ":323,"è¡":324,"èĥ½":325,"çļĦæ":326,"åĩ":327,"ãĢĤ<|":328,"å·":329,"æĸĩ":330,"åĮ":331,"è¦":332,"è¦ģ":333,"é¢":334,"å¯":335,"å¾":336,"åĨ":337,"ä¸º":338,"è§":339,"å¥":340,"çī":341,"ç§":342,"ä»¬":343,"éĹ":344,"çİ":345,"å¼":346,"ä¸į":347,"çĶ¨":348,"æķ":349,"èĢ":350,"å½":351,"æĢ":352,"æŀ":353,"çĶŁ":354,"çŃ":355,"æı":356,"æī":357,"æŃ":358,"åı¯ä»¥":359,"éĿ":360,"åį":361,"Ġ<|":362,"ä¿":363,"æĬ":364,"æł":365,"æ³":366,"çĽ":367,"âĢ":368,"æĿ¥":369,"èĩ":370,"æĦ":371,"åĵ":372,"å¦":373,"ä¸ĭ":374,"çĲ":375,"ä¸Ģä¸ª":376,"æĪĲ":377,"åİ":378,"æĥ":379,"æıĲ":380,"æ°":381,"åĪ°":382,"ä»ĸ":383,"æĽ":384,"åŃ¦":385,"æĻ":386,"å¦Ĥ":387,"è¡Į":388,"åĩº":389,"åĳ":390,"å¿":391,"æĹ¶":392,"å¯¹":393,"æĭ":394,"ä½ł":395,"åŃĲ":396,"ä¾":397,"äºİ":398,"æİ":399,"åľ°":400,"é¢ĺ":401,"ä¸Ĭ":402,"ç«":403,"æĶ":404,"è´":405,"å°ı":406,"å¥½":407,"ä¼ļ":408,"çŃī":409,"æĸ¹":410,"æľ¬":411,"èĩª":412,"åĪĨ":413,"æĽ´":414,"äºĽ":415,"å¤ļ":416,"æµ":417,"æ¯":418,"èµ":419,"å¤§":420,"å±":421,"æį":422,"ï¼Ł":423,"åĬ¨":424,"ä½ľ":425,"å·¥":426,"çī©":427,"çº":428,"åħ³":429,"è¾":430,"å¹¶":431,"åıĳ":432,"ç®":433,"æĮ":434,"ç±":435,"é£":436,"éľ":437,"æĪĳä»¬":438,"éĿ¢":439,"æ´":440,"å®ļ":441,"æľĢ":442,"åħ¶":443,"æŀľ":444,"åŁ":445,"æ¬":446,"ç§į":447,"çİ°":448,"çļĦç":449,"è¿Ľ":450,"æ³ķ":451,"éĻ":452,"è¿ĩ":453,"æĤ":454,"éĹ®":455,"åģ":456,"æ¸":457,"ä½ĵ":458,"èī":459,"å¤©":460,"å®ĥ":461,"æį®":462,"ç»Ļ":463,"åĬĽ":464,"çĲĨ":465,"æĺİ":466,"éľĢ":467,"æ²":468,"å°Ĩ":469,"åºĶ":470,"åĬł":471,"ç±»":472,"æĸ°":473,"éģ":474,"çĤ":475,"åĮĸ":476,"æĢ§":477,"çĦ":478,"é«":479,"åĲĮ":480,"æĪĸ":481,"ä½¿":482,"åĽł":483,"ä¿Ŀ":484,"å¸¸":485,"éĩį":486,"çľ":487,"é«ĺ":488,"åı¥":489,"è½":490,"æĦŁ":491,"å®¶":492,"ä¹Ł":493,"æľº":494,"å½±":495,"è¶":496,"æ±":497,"ä¸»":498,"éĶ":499,"éĺ":500,"è¯Ń":501,"çĦ¶":502,"ç«ł":503,"å¾Ĺ":504,"âĢĿ":505,"æķ°":506,"æĸĩç«ł":507,"éĢļ":508,"åĵģ":509,"âĢľ":510,"ç³":511,"éľĢè¦ģ":512,"çĶµ":513,"æĬĢ":514,"æĻº":515,"è°":516,"è§£":517,"æĸĩæľ¬":518,"ä¹ĭ":519,"ä¹Ī":520,"æĥħ":521,"æĤ¨":522,"éĹ®é¢ĺ":523,"åº¦":524,"çŁ":525,"èĢĮ":526,"åī":527,"æģ":528,"è¡¨":529,"ç»ı":530,"æĻºèĥ½":531,"è¯·":532,"çĿ":533,"å¾Ī":534,"éĹ´":535,"æŃ¤":536,"èĬ":537,"åĸ":538,"ç¾":539,"åħ¬":540,"å¢":541,"éĩı":542,"åĽ½":543,"ç©":544,"çĤ¹":545,"æľ¯":546,"ç¤":547,"èī²":548,"èĤ":549,"èĢħ":550,"è¯į":551,"å¹´":552,"å®ŀ":553,"æ°Ķ":554,"å»":555,"åĢ":556,"åıĸ":557,"ä¿¡":558,"è¿Ļä¸ª":559,"ä¹ł":560,"åĲį":561,"ç¨":562,"å¿ĥ":563,"ä½Ĩ":564,"åĲĪ":565,"æĦı":566,"è¯¥":567,"ä¸ļ":568,"ä¾Ľ":569,"çĸ":570,"è®¡":571,"åĲİ":572,"ç¡":573,"éĤ":574,"äºĭ":575,"æīĢ":576,"ä»¥ä¸ĭ":577,"ä»İ":578,"è¿ĺ":579,"å»º":580,"æ®":581,"çĽ¸":582,"çĿĢ":583,"çĲĥ":584,"ä¸ĢäºĽ":585,"éĥ½":586,"åĮħ":587,"æıĲä¾Ľ":588,"æ´»":589,"ä¸İ":590,"ç¾İ":591,"æł¹":592,"è¿Ľè¡Į":593,"æŁ":594,"åı¥åŃĲ":595,"ç½":596,"å¼ı":597,"é£Ł":598,"åħ¥":599,"å±ķ":600,"åħ¨":601,"éĩĮ":602,"è¿°":603,"äººå·¥":604,"å¤ĸ":605,"çİ¯":606,"é¡":607,"çķ":608,"çī¹":609,"ä½¿çĶ¨":610,"æĥ³":611,"ç´":612,"éĿŀ":613,"èĲ":614,"é¦":615,"äººå·¥æĻºèĥ½":616,"ç¯":617,"åĨħ":618,"æŃ£":619,"æ¡":620,"è¢":621,"éļ":622,"å½ĵ":623,"å¼Ģ":624,"åİ»":625,"éķ":626,"æģ¯":627,"æł¹æį®":628,"æ°´":629,"æ·":630,"æ¯Ķ":631,"åıĺ":632,"åĨĻ":633,"æ®µ":634,"æĺ¯ä¸Ģ":635,"åŀ":636,"éĥ":637,"ç³»":638,"è·":639,"åĬ©":640,"èģ":641,"è¯´":642,"åŃ¦ä¹ł":643,"ç¨ĭ":644,"åĪ¶":645,"åħ·":646,"ç¡®":647,"å¸Ĥ":648,"è®©":649,"ä»Ģ":650,"éĽ":651,"æĮģ":652,"éģĵ":653,"åĿ":654,"çľĭ":655,"ç¯ĩ":656,"ç¼":657,"äº§":658,"èµ·":659,"çĥ":660,"ç»ĵ":661,"åķ":662,"ä»Ģä¹Ī":663,"æĬĢæľ¯":664,"å¸®":665,"èº":666,"åıĬ":667,"è¯Ŀ":668,"éĥ¨":669,"çĽ®":670,"éĤ£":671,"èĭ":672,"ç¬":673,"ä½ķ":674,"éķ¿":675,"éĿŀå¸¸":676,"èį":677,"åĬ¡":678,"ç®Ĺ":679,"æ¯ı":680,"èº«":681,"çĭ":682,"è¢«":683,"åģ¥":684,"ç§ĳ":685,"æĹ¥":686,"å°ĳ":687,"å·±":688,"åīį":689,"åĻ":690,"æĭ¬":691,"éħ":692,"éĢĤ":693,"åĸľ":694,"èĩªå·±":695,"åľº":696,"å®¹":697,"åıĹ":698,"åı¯èĥ½":699,"æĹł":700,"åĽŀ":701,"æ¬¢":702,"ä¿¡æģ¯":703,"éĢī":704,"ä»ĸä»¬":705,"åĻ¨":706,"åĮ»":707,"äº¤":708,"å¥½çļĦ":709,"ä»£":710,"åŀĭ":711,"é¢Ĩ":712,"åĪ«":713,"èĻ":714,"çł":715,"å¤Ħ":716,"çĶµå½±":717,"çŃĶ":718,"è¨":719,"é¥":720,"çĪ":721,"éª":722,"æ¶":723,"ä½į":724,"åĪ©":725,"è´¨":726,"æ»":727,"è®®":728,"é£İ":729,"å¢ĥ":730,"å¹³":731,"ä¸¤":732,"æ¡Ī":733,"æīĭ":734,"çĹ":735,"å§":736,"ä¾ĭ":737,"è¿ĻäºĽ":738,"éĩįè¦ģ":739,"éĢļè¿ĩ":740,"å¦Ĥæŀľ":741,"ä¸ŃçļĦ":742,"éŁ":743,"ä»»":744,"åĵį":745,"ä»¶":746,"çĶŁæĪĲ":747,"åĮħæĭ¬":748,"è®º":749,"åŃĹ":750,"åı¸":751,"åŁŁ":752,"åıĳå±ķ":753,"è¨Ģ":754,"çĻ":755,"åºĶçĶ¨":756,"å°ıæĺİ":757,"å°±":758,"æłĩ":759,"ç®Ģ":760,"æ±Ĥ":761,"æ²¡":762,"åĪĽ":763,"åįķ":764,"åĨ³":765,"è§Ĥ":766,"æĶ¹":767,"æĶ¾":768,"æİ¨":769,"æ¸¸":770,"èĪ":771,"çģ":772,"åıª":773,"æľª":774,"è®¾":775,"å½±åĵį":776,"çŁ¥":777,"åº·":778,"ç»Ł":779,"æĹ¶éĹ´":780,"ä¸ī":781,"æĢ»":782,"å¸®åĬ©":783,"ç¥":784,"æľŁ":785,"é»":786,"å£":787,"åĸľæ¬¢":788,"æº":789,"ä¹Ĳ":790,"èĬĤ":791,"åħ¬åı¸":792,"æıı":793,"æķĪ":794,"è¯Ĩ":795,"åģ¥åº·":796,"æµ·":797,"æ¨":798,"å¼º":799,"å¤Ł":800,"èĥ":801,"ç»Ļå®ļ":802,"ç¤¾":803,"æĸŃ":804,"åĩı":805,"äººç±»":806,"æĳ":807,"æ³¨":808,"æŀģ":809,"å®ī":810,"é¢ĨåŁŁ":811,"çĶŁæ´»":812,"æ¼":813,"æľį":814,"è¾¾":815,"æ·±":816,"çĶ±":817,"æł·":818,"çĸĹ":819,"åĽłæŃ¤":820,"çİ¯å¢ĥ":821,"ä¸įåĲĮ":822,"æŃ¥":823,"å·¥ä½ľ":824,"æĺŁ":825,"è±":826,"èĦ":827,"é©":828,"éŁ³":829,"å¤ª":830,"æķ°æį®":831,"æµģ":832,"å½¢":833,"åİŁ":834,"åģļ":835,"ä¸ĸ":836,"å·²":837,"èİ":838,"æıĲåıĸ":839,"æĻ¯":840,"è½¦":841,"åıĭ":842,"æııè¿°":843,"æ²¡æľī":844,"å¸¦":845,"æĪ·":846,"åĽłä¸º":847,"å¯¼":848,"è¿Ĳ":849,"æ¬¡":850,"åĳĺ":851,"çĮ":852,"ç²":853,"éĴ":854,"èı":855,"å»ºè®®":856,"æ¨¡":857,"æĸĻ":858,"éĶ®":859,"æıĲé«ĺ":860,"è¯ķ":861,"èĩªçĦ¶":862,"å®ĥä»¬":863,"æī¾":864,"ãĢĭ":865,"åŁº":866,"ãĢĬ":867,"å¦Ĥä½ķ":868,"è®¤":869,"åİĨ":870,"ä¹ī":871,"åŁİ":872,"æĽ´åĬł":873,"å¥¹":874,"ä¼ł":875,"æºĲ":876,"ä¸»è¦ģ":877,"åĲĦ":878,"åħ³éĶ®":879,"ç¤º":880,"æĬ¤":881,"æĭ©":882,"æĮĩ":883,"åºĶè¯¥":884,"åĲĳ":885,"éĢł":886,"æł¼":887,"ç»Ħ":888,"éĢīæĭ©":889,"çķĮ":890,"åħī":891,"çļĦæķ":892,"æĸ¹å¼ı":893,"æĹħ":894,"åĲĮæĹ¶":895,"è¿ĳ":896,"èĥ½å¤Ł":897,"ç¯ĩæĸĩç«ł":898,"èĲ½":899,"ç©¶":900,"è£":901,"åĨħå®¹":902,"è°ĥ":903,"äººä»¬":904,"åı£":905,"çĪ±":906,"ï¼Ľ":907,"è¯Ńè¨Ģ":908,"è§Ĩ":909,"åĳ³":910,"ç©º":911,"çº¢":912,"åĮº":913,"èĢĥ":914,"ä»·":915,"åĲĹ":916,"åħ³äºİ":917,"çĬ":918,"ç½ĳ":919,"èĬ±":920,"åĳĬ":921,"æĺ¯ä¸Ģä¸ª":922,"ä¾ĭå¦Ĥ":923,"æľªæĿ¥":924,"çĹħ":925,"é¤":926,"è®¡ç®Ĺ":927,"å¿«":928,"å¹¿":929,"æľºåĻ¨":930,"ç®¡":931,"æĸ¹æ³ķ":932,"æĸ¹éĿ¢":933,"é¢Ħ":934,"å¢ŀ":935,"ï¼ī":936,"åķĨ":937,"éªĮ":938,"é¤Ĳ":939,"æĢĿ":940,"Ķç©¶":941,"ç¦":942,"ä¹¦":943,"ä¸Ķ":944,"åĩĨ":945,"å®Į":946,"åĩł":947,"é¦ĸ":948,"éĵ":949,"å®¢":950,"éĶĻ":951,"åĪ°äºĨ":952,"é¡¹":953,"åħ¶ä»ĸ":954,"ä¼ĺ":955,"è¶Ĭ":956,"ä»¥åıĬ":957,"ä¸»é¢ĺ":958,"é¸":959,"å¼ķ":960,"éĩĳ":961,"è®¸":962,"è¯Ħ":963,"æļ":964,"æ¸ħ":965,"åħĪ":966,"ç´ł":967,"åĬŁ":968,"æ£":969,"å¤ĩ":970,"è½»":971,"æİ¥":972,"è§ī":973,"åĪĹ":974,"ï¼Ī":975,"è¯»":976,"èµĦ":977,"æĪĺ":978,"èĮ":979,"åĪĨç±»":980,"å§ĭ":981,"ä»Ĭ":982,"ä¸ªäºº":983,"éĺ³":984,"çŁŃ":985,"èĩ´":986,"åŃĺ":987,"åĵª":988,"æµĭ":989,"æķĻ":990,"æĢģ":991,"æ¸©":992,"ç»Ń":993,"åĢĻ":994,"ï¼ģ":995,"æľĭ":996,"æŀĲ":997,"ç¼ĸ":998,"ä¸ĸçķĮ":999,"åħ±":1000,"ä½Ĩæĺ¯":1001,"åĲ«":1002,"æľĪ":1003,"èıľ":1004,"æľĭåıĭ":1005,"çº¦":1006,"åħĭ":1007,"ç§¯":1008,"ç«ĭ":1009,"çİĩ":1010,"åĽŀçŃĶ":1011,"æĸĩåĮĸ":1012,"åĪĨæŀĲ":1013,"å¤ĦçĲĨ":1014,"åı²":1015,"ç»Ĩ":1016,"çļĦæĥ":1017,"ä¸Ģä¸ĭ":1018,"æĶ¯":1019,"åĩıå°ĳ":1020,"åŁİå¸Ĥ":1021,"è±¡":1022,"å±±":1023,"ä¹ĭä¸Ģ":1024,"è¶³":1025,"è¿Ļç¯ĩæĸĩç«ł":1026,"ä¸ŃåĽ½":1027,"æķ´":1028,"åĲ¦":1029,"å¤į":1030,"ç¬¬":1031,"åĪĻ":1032,"æ»¡":1033,"åĨµ":1034,"ä¿ĿæĬ¤":1035,"çłĶç©¶":1036,"ĺè¦ģ":1037,"èĳ":1038,"åħĥ":1039,"è§Ĵ":1040,"ç¥ŀ":1041,"é¥®":1042,"20":1043,"å·²ç»ı":1044,"åĥ":1045,"æľĽ":1046,"è®¸å¤ļ":1047,"æİ¢":1048,"äºĨä¸Ģ":1049,"èĩªå·±çļĦ":1050,"ä¸¤ä¸ª":1051,"ç³ĸ":1052,"éĩĩ":1053,"åıį":1054,"ç¿":1055,"è°¢":1056,"èĢģ":1057,"äº§åĵģ":1058,"çº¿":1059,"åĪĴ":1060,"è¾ĵ":1061,"çľŁ":1062,"åĮ»çĸĹ":1063,"æŃ¤å¤ĸ":1064,"çĭĹ":1065,"ç³»ç»Ł":1066,"æĽ´å¤ļ":1067,"è§Ħ":1068,"å°½":1069,"éĢŁ":1070,"åĶ":1071,"çħ":1072,"è¶£":1073,"è·¯":1074,"éĻ©":1075,"å¥³":1076,"åıĤ":1077,"çļĦäºº":1078,"èģĶ":1079,"åĲĥ":1080,"ä¿ĿæĮģ":1081,"ä»½":1082,"æĸ¯":1083,"è¥":1084,"åħ¨çĲĥ":1085,"æĺ¯ä¸Ģç§į":1086,"æĬ¥":1087,"æĺĵ":1088,"çĽ´":1089,"åĬ¨çī©":1090,"Â·":1091,"æľįåĬ¡":1092,"çĻ½":1093,"å¤´":1094,"åĢ¼":1095,"è¥¿":1096,"æĸ½":1097,"è§£åĨ³":1098,"æİĴ":1099,"æĪĲä¸º":1100,"ħäºĭ":1101,"åĨį":1102,"åĥı":1103,"çĥŃ":1104,"çİ¯ä¿Ŀ":1105,"ä»ĭ":1106,"åĽ¾":1107,"æ´»åĬ¨":1108,"å²":1109,"éļ¾":1110,"ä¹°":1111,"ä¾¿":1112,"åĳ¨":1113,"çļĦä¸Ģ":1114,"æŁ¥":1115,"æĪĸèĢħ":1116,"èİ·":1117,"è¾ĥ":1118,"èĻĳ":1119,"æŀĦ":1120,"æĿ¡":1121,"ç¤¾ä¼ļ":1122,"å®īåħ¨":1123,"10":1124,"è¿ĲåĬ¨":1125,"è§ģ":1126,"çīĩ":1127,"åĲ¬":1128,"èº«ä½ĵ":1129,"ç»ĻæĪĳ":1130,"è¯Ĺ":1131,"åıĳçİ°":1132,"èĩ³":1133,"æĲ":1134,"çļĦæĥħ":1135,"æ¼Ķ":1136,"éħį":1137,"éļı":1138,"åıĺåĮĸ":1139,"çİ°åľ¨":1140,"ãĢĤâĢĿ":1141,"æīĵ":1142,"ç§ĳæĬĢ":1143,"åħ¶ä¸Ń":1144,"ç»ĥ":1145,"åºı":1146,"æĶ¶":1147,"çĬ¶":1148,"è®¤ä¸º":1149,"å¼ł":1150,"èĤ²":1151,"å¤©æ°Ķ":1152,"ä¸½":1153,"ç´¢":1154,"éĤ£ä¹Ī":1155,"æĪĳä»¬çļĦ":1156,"åĳ½":1157,"ä¹ĭéĹ´":1158,"äº«":1159,"æĬĬ":1160,"ç²¾":1161,"è®°":1162,"æ¶Ī":1163,"¹æŀľ":1164,"æħ":1165,"åħħ":1166,"èĥ½åĬĽ":1167,"çĽ¸åħ³":1168,"èĭ¹æŀľ":1169,"äºĮ":1170,"ä½łçļĦ":1171,"åİĨåı²":1172,"æĶ¿":1173,"åĲ¸":1174,"å¾Īå¤ļ":1175,"åı¤":1176,"çŃĸ":1177,"å¡":1178,"å¸¦æĿ¥":1179,"çı":1180,"æ¤":1181,"æĳĺè¦ģ":1182,"åĽŃ":1183,"åħ·æľī":1184,"è´Ń":1185,"ç¢":1186,"åħ´":1187,"éĺŁ":1188,"å¸Ī":1189,"ä½İ":1190,"çĮ«":1191,"å¤±":1192,"éĹ¨":1193,"æ¬¾":1194,"ç»´":1195,"æ²»":1196,"åį³":1197,"ç»Ļå®ļçļĦ":1198,"éĹ»":1199,"ç§ĳåŃ¦":1200,"ç§°":1201,"å¸ĥ":1202,"æ¢":1203,"çĭ¬":1204,"åħį":1205,"æŃĮ":1206,"è¯ī":1207,"éĩĬ":1208,"äºĴ":1209,"èįĲ":1210,"åĭ":1211,"éŁ³ä¹Ĳ":1212,"ç»Ļåĩº":1213,"å°Ŀ":1214,"çļĦæĦ":1215,"¦Ĥ":1216,"çŃĶæ¡Ī":1217,"æīį":1218,"æĿĲ":1219,"è¿Ļç§į":1220,"è®¾è®¡":1221,"ç§¯æŀģ":1222,"ç»į":1223,"å¼Ģå§ĭ":1224,"ä»»åĬ¡":1225,"èĲ¥":1226,"æĿ¾":1227,"äºĨè§£":1228,"éĽĨ":1229,"è¡¨è¾¾":1230,"ä»ĭç»į":1231,"ä¸ŃæıĲåıĸ":1232,"åı¥è¯Ŀ":1233,"çļĦå½±åĵį":1234,"å¯¼èĩ´":1235,"å¯Į":1236,"è¯¯":1237,"åŃ£":1238,"å¿ħ":1239,"å¨":1240,"èĽ":1241,"å¯¹äºİ":1242,"æ¨¡åŀĭ":1243,"åħ·ä½ĵ":1244,"è®¡ç®Ĺæľº":1245,"èĭ±":1246,"çĶ·":1247,"æĥħæĦŁ":1248,"æľºåĻ¨åŃ¦ä¹ł":1249,"çĲĨè§£":1250,"æİ¨èįĲ":1251,"çļĦæĬ":1252,"è½¬":1253,"å®ŀçİ°":1254,"æľĢè¿ĳ":1255,"æĸ°çļĦ":1256,"æĺ¯åĲ¦":1257,"éĢļå¸¸":1258,"åı·":1259,"åįĩ":1260,"åİĭ":1261,"è®¨":1262,"é¦Ļ":1263,"éĻ¤":1264,"èµĽ":1265,"è®²":1266,"åĬ¿":1267,"ä¸ĵ":1268,"ä»Ĭå¤©":1269,"æĽ´å¥½":1270,"èĤī":1271,"é²":1272,"åĮĹ":1273,"ä¸įæĸŃ":1274,"åĲĦç§į":1275,"ä¿®":1276,"æĿİ":1277,"è´¹":1278,"é»ĳ":1279,"éĶĢ":1280,"æ°ĳ":1281,"åľ°çĲĥ":1282,"è®¡åĪĴ":1283,"å¸Ĥåľº":1284,"è£ħ":1285,"åįİ":1286,"æĪı":1287,"åįģ":1288,"åħ³éĶ®è¯į":1289,"åĳĬè¯ī":1290,"è¯ģ":1291,"æŁĵ":1292,"åħ»":1293,"çļĦéĹ®é¢ĺ":1294,"æīĢæľī":1295,"ä¸Ģæ®µ":1296,"é©¬":1297,"èħ":1298,"åĸĦ":1299,"åĽ´":1300,"æīĢä»¥":1301,"çĶ¨æĪ·":1302,"æ³¨æĦı":1303,"èīº":1304,"æĻļ":1305,"ç»Ī":1306,"æĪĳçļĦ":1307,"åįķè¯į":1308,"å¯»":1309,"è¯ĨåĪ«":1310,"éĢĤåĲĪ":1311,"å¤ı":1312,"ä¸Ģèµ·":1313,"æİ§":1314,"ç¦»":1315,"å¸Į":1316,"æŃ£åľ¨":1317,"çª":1318,"AI":1319,"æĪĳä»¬åı¯ä»¥":1320,"èĳĹ":1321,"å¾ĭ":1322,"éĻħ":1323,"éĺ²":1324,"æĸ°éĹ»":1325,"æ¯Ķå¦Ĥ":1326,"è¶ħ":1327,"ä»ĸçļĦ":1328,"åĽĽ":1329,"è¿ľ":1330,"å¤ªéĺ³":1331,"åŃ©":1332,"è¦ģæ±Ĥ":1333,"çŁ¥éģĵ":1334,"çļĦæĺ¯":1335,"æĹłæ³ķ":1336,"å°Ķ":1337,"å¹¶ä¸Ķ":1338,"ä¸Ģç§į":1339,"å·§":1340,"æĦŁåĪ°":1341,"æŀĹ":1342,"æ³Ľ":1343,"å£°":1344,"æĴ":1345,"èµ°":1346,"åĳ¢":1347,"åħ³ç³»":1348,"æŁĲ":1349,"å°ıè¯´":1350,"çĦ¶åĲİ":1351,"åı¦":1352,"ä»ħ":1353,"ï¼ļâĢľ":1354,"è´Ł":1355,"æĹħæ¸¸":1356,"è¿ĩç¨ĭ":1357,"åįĹ":1358,"æ¯ıä¸ª":1359,"å£«":1360,"ç½®":1361,"åŃĺåľ¨":1362,"æĢ»ç»ĵ":1363,"å¤§çļĦ":1364,"åİħ":1365,"èģĮ":1366,"è§£éĩĬ":1367,"èĢĥèĻĳ":1368,"å¾·":1369,"æĪĲåĬŁ":1370,"æĭī":1371,"è´¨éĩı":1372,"è¾¹":1373,"æĹ©":1374,"çļĦæ°":1375,"ç®¡çĲĨ":1376,"éĻį":1377,"èĽĭ":1378,"çļĦæĢ":1379,"åŃ¦çĶŁ":1380,"æĺ¾":1381,"ĳæĪĺ":1382,"åĦ":1383,"æĪ¿":1384,"çŃīçŃī":1385,"èŀ":1386,"ªæĸ½":1387,"æ®µèĲ½":1388,"è¡Įä¸º":1389,"ç¾İåĽ½":1390,"ä¸ľ":1391,"æĪĳæĥ³":1392,"éĶĻè¯¯":1393,"åĮ»çĶŁ":1394,"å¢ŀåĬł":1395,"ä¸Ģç¯ĩ":1396,"è¾ĳ":1397,"çĨ":1398,"ä¼¼":1399,"å°Ŀè¯ķ":1400,"äºĶ":1401,"çħ§":1402,"å¯¹è¯Ŀ":1403,"å®ĮæĪĲ":1404,"æ¦Ĥ":1405,"å¯Ĩ":1406,"çİ©":1407,"æĺ¯ä»Ģä¹Ī":1408,"å¹¿æ³Ľ":1409,"ç±³":1410,"ä¸ĭéĿ¢":1411,"ä½ľä¸º":1412,"åĪ©çĶ¨":1413,"çĶ»":1414,"è¿Ļæ®µ":1415,"ä¸įåĲĮçļĦ":1416,"çģ«":1417,"èĩªåĬ¨":1418,"æľĢåĲİ":1419,"é¥®é£Ł":1420,"æĭ¥":1421,"æļĸ":1422,"çİĭ":1423,"éģ¿":1424,"åĴĸ":1425,"å½ĵçĦ¶":1426,"æ¿":1427,"é£Łçī©":1428,"è®Ń":1429,"çļĦåıĳå±ķ":1430,"å®³":1431,"å¾ĹåĪ°":1432,"æµİ":1433,"åı°":1434,"æĽ´å¥½åľ°":1435,"åĽ¢":1436,"ç¡®ä¿Ŀ":1437,"å¿µ":1438,"åı¯èĥ½ä¼ļ":1439,"çļĦåľ°":1440,"çļĦæķ°":1441,"ä¼ģ":1442,"çļĦä¿¡æģ¯":1443,"ãĢĤ\\":1444,"ä»»ä½ķ":1445,"æ°ĶåĢĻ":1446,"äºļ":1447,"ç®Ĺæ³ķ":1448,"åķ¡":1449,"èŀį":1450,"çļĦåºĶçĶ¨":1451,"äº¬":1452,"ä¸įæĺ¯":1453,"æłĩé¢ĺ":1454,"äº§çĶŁ":1455,"éĻĲ":1456,"æĤ¨çļĦ":1457,"åĴĸåķ¡":1458,"æĥħåĨµ":1459,"æ´ģ":1460,"æĵ":1461,"å®¤":1462,"å¸ĮæľĽ":1463,"æķħäºĭ":1464,"èįī":1465,"èİ·å¾Ĺ":1466,"æį¢":1467,"è¿ĺæľī":1468,"åł":1469,"éĽ¨":1470,"äººçļĦ":1471,"ç»ľ":1472,"äº¤éĢļ":1473,"æĢİ":1474,"å·´":1475,"è¾ĵåħ¥":1476,"çĽ®æłĩ":1477,"åĦ¿":1478,"ç»ıæµİ":1479,"è¿Ļæł·":1480,"çĶŁæĪĲä¸Ģä¸ª":1481,"å¹²":1482,"é»Ħ":1483,"è¡¨ç¤º":1484,"é¦ĸåħĪ":1485,"çĶ¨äºİ":1486,"åı¯ä»¥å¸®åĬ©":1487,"éħĴ":1488,"è¡£":1489,"é£ŀ":1490,"éĥ½æĺ¯":1491,"ç³ĸæŀľ":1492,"ä¼Ĺ":1493,"å¾ģ":1494,"æľīæķĪ":1495,"é¤Ĳåİħ":1496,"çļĦä¸»è¦ģ":1497,"ä½łåı¯ä»¥":1498,"éĺħ":1499,"åĮħåĲ«":1500,"çīĽ":1501,"çļĦæł":1502,"ç©¿":1503,"åºĹ":1504,"æĹħè¡Į":1505,"æī¾åĪ°":1506,"å¾Ģ":1507,"æķĻèĤ²":1508,"å±ŀ":1509,"åºŃ":1510,"ç»ĵæŀľ":1511,"ç®Ģåįķ":1512,"¡æŁĵ":1513,"éľĢæ±Ĥ":1514,"æ¸¸æĪı":1515,"æ¿Ģ":1516,"çļĦéĩįè¦ģ":1517,"éĥ¨åĪĨ":1518,"éº":1519,"åĳĬè¯īæĪĳ":1520,"ä½¿åħ¶":1521,"åĿĩ":1522,"éģ¿åħį":1523,"éĩĩåıĸ":1524,"æ©":1525,"å±ħ":1526,"æ½":1527,"è§ĤçĤ¹":1528,"åĩłä¸ª":1529,"æİªæĸ½":1530,"ç½ĳç»ľ":1531,"åĪ¶ä½ľ":1532,"çīĮ":1533,"åĩĨç¡®":1534,"ä¹Łæĺ¯":1535,"æľīåħ³":1536,"å¾®":1537,"ä»¤":1538,"äºī":1539,"æĮģç»Ń":1540,"æĶ¯æĮģ":1541,"èĥ½æºĲ":1542,"ä¸ĩ":1543,"ä½ĵéªĮ":1544,"åª":1545,"é±":1546,"èµ·æĿ¥":1547,"äºĨä¸Ģä¸ª":1548,"é±¼":1549,"ä½ľçĶ¨":1550,"åī§":1551,"ä¼ģä¸ļ":1552,"è¡¨çİ°":1553,"éĩįè¦ģçļĦ":1554,"ç«Ļ":1555,"ç»¿":1556,"ä¸įèĥ½":1557,"çĽĬ":1558,"é¼":1559,"çĳ":1560,"æłĳ":1561,"åıĳçĶŁ":1562,"ä»ĸä»¬çļĦ":1563,"ä¹Łåı¯ä»¥":1564,"00":1565,"èĵ":1566,"èī¯":1567,"éĺħè¯»":1568,"åĪĩ":1569,"å°ıçº¢":1570,"èĩªçĦ¶è¯Ńè¨Ģ":1571,"æ¤į":1572,"¾çĹħ":1573,"é¾":1574,"çĶ±äºİ":1575,"çİ°ä»£":1576,"ä¸īä¸ª":1577,"å¤ľ":1578,"åĵªäºĽ":1579,"åĪ¤":1580,"ç¤¾äº¤":1581,"å®Ŀ":1582,"å¾ħ":1583,"ç¬¦":1584,"æ²¹":1585,"æĭ¥æľī":1586,"åŁºäºİ":1587,"å¥¶":1588,"âĢĿï¼Į":1589,"æ¹":1590,"åĬłåħ¥":1591,"åħ³æ³¨":1592,"çº§":1593,"å¥ĩ":1594,"è¿ĺæĺ¯":1595,"èī²çļĦ":1596,"ç»ĩ":1597,"è¯Ĭ":1598,"æ±¡æŁĵ":1599,"åıĪ":1600,"å¦Ĥæŀľä½ł":1601,"é¢ľ":1602,"éģĩ":1603,"åĬª":1604,"ä¸¾":1605,"åºľ":1606,"åĿĹ":1607,"ï¼Ł<|":1608,"é¦Ĩ":1609,"åĩºçİ°":1610,"è¿ŀ":1611,"çļĦæĸĩç«ł":1612,"ä¸°":1613,"é¸¡":1614,"ç±»åŀĭ":1615,"ä»¥ä¸ĭåı¥åŃĲ":1616,"ç¡®å®ļ":1617,"åĪ»":1618,"å®¶åºŃ":1619,"æĮĳæĪĺ":1620,"æĺ¥":1621,"å®¢æĪ·":1622,"èµĦæºĲ":1623,"çļĦæİ":1624,"åĬªåĬĽ":1625,"åĶ®":1626,"è½¯":1627,"ç¿»":1628,"èĪĴ":1629,"èį¯":1630,"è®Ńç»ĥ":1631,"æİ§åĪ¶":1632,"èĻ½":1633,"æľīè¶£":1634,"éĿĻ":1635,"æĢ§åĴĮ":1636,"æķ£":1637,"è¿½":1638,"åĬŁèĥ½":1639,"è¿Ļæĺ¯":1640,"ä»İèĢĮ":1641,"èĦĳ":1642,"çļĦæĬĢ":1643,"æŃ£ç¡®":1644,"åıĹåĪ°":1645,"æĸ¹æ¡Ī":1646,"çļĦåı¥åŃĲ":1647,"çļĦæĻ":1648,"ä¸ºäºĨ":1649,"ç§ĭ":1650,"é¸Ł":1651,"æ£Ģ":1652,"ä¸¥":1653,"æĬķ":1654,"éŃ":1655,"èŃ":1656,"è§Ĵèī²":1657,"æ²»çĸĹ":1658,"æĤ¨åı¯ä»¥":1659,"åħ¸":1660,"çĸ¾çĹħ":1661,"é¢Ħæµĭ":1662,"èīºæľ¯":1663,"å±Ĥ":1664,"æ²Ļ":1665,"çļĦç¾":1666,"å½Ĵ":1667,"åİĭåĬĽ":1668,"ç¨ĭåºı":1669,"æ¯Ķè¾ĥ":1670,"æķĪçİĩ":1671,"æİ¢ç´¢":1672,"åģĩ":1673,"äºĳ":1674,"è¯¦":1675,"äººå·¥æĻºèĥ½æĬĢæľ¯":1676,"äºĭä»¶":1677,"èĮĥ":1678,"èĶ":1679,"ä¸ĬçļĦ":1680,"æĤ£":1681,"æĿ¯":1682,"è´Ńä¹°":1683,"ä¼łç»Ł":1684,"æĿĤ":1685,"çļĦæĦı":1686,"çŁ³":1687,"èĻ½çĦ¶":1688,"éĻ¢":1689,"æľĢç»Ī":1690,"éĨ":1691,"ä¸įä»ħ":1692,"æĿ¥è¶Ĭ":1693,"æ°ĶåĢĻåıĺåĮĸ":1694,"çĶŁçī©":1695,"çĶŁåĳ½":1696,"é²ľ":1697,"è¶ĬæĿ¥è¶Ĭ":1698,"æĮī":1699,"ç¦ı":1700,"çĶµåŃĲ":1701,"æīįèĥ½":1702,"æµª":1703,"æĪĳä»¬éľĢè¦ģ":1704,"éļıçĿĢ":1705,"é£İéĻ©":1706,"æ¥":1707,"å°±æĺ¯":1708,"æĽ²":1709,"ä¸Ģä»½":1710,"æ´ĭ":1711,"è¯Ħè®º":1712,"çķ¥":1713,"æ±½":1714,"åªĴ":1715,"çĥ¤":1716,"ä¸´":1717,"ç¼º":1718,"åĽ°":1719,"ä¸Ģä½į":1720,"åį¡":1721,"è·ĳ":1722,"æĿ¥è¯´":1723,"çĵ":1724,"èĥĮ":1725,"åı¶":1726,"åĨ°":1727,"æĢİä¹Ī":1728,"å»ºç«ĭ":1729,"ç¼ĸè¾ĳ":1730,"ä¸°å¯Į":1731,"åĪĽéĢł":1732,"æĶ¿åºľ":1733,"åİŁåĽł":1734,"æĻ®":1735,"å½©":1736,"ä»·åĢ¼":1737,"èĩªçĦ¶è¯Ńè¨Ģå¤ĦçĲĨ":1738,"è¯¦ç»Ĩ":1739,"æĿĥ":1740,"åĿļ":1741,"èĵĿ":1742,"æł¡":1743,"çļĦæī":1744,"æ°´æŀľ":1745,"æ¯ĶèµĽ":1746,"åĳ¼":1747,"æĽ´å¤ļçļĦ":1748,"çļĦç¾İ":1749,"åĽłç´ł":1750,"çĶŁæĢģ":1751,"è¡¨æĺİ":1752,"å¤ļå°ĳ":1753,"ä½ľèĢħ":1754,"è¯Ńæ³ķ":1755,"äº²":1756,"èľ":1757,"æĸĩæ¡Ī":1758,"æĹ¶åĢĻ":1759,"ä¹ĭéĹ´çļĦ":1760,"è¯ĬæĸŃ":1761,"ç¬Ķ":1762,"æĶ¹åıĺ":1763,"æĹı":1764,"ç»Ħç»ĩ":1765,"åħ¬åĽŃ":1766,"åĩĨå¤ĩ":1767,"ä»¥ä¸ĭæĸĩæľ¬":1768,"è¿ĺåı¯ä»¥":1769,"åĬŀ":1770,"å³":1771,"èĴ":1772,"æľºä¼ļ":1773,"é¢ĺçĽ®":1774,"è¯·éĹ®":1775,"ä½ı":1776,"ä¿ĥ":1777,"é¢Ĺ":1778,"çļĦæĥħæĦŁ":1779,"çªģ":1780,"æĿĲæĸĻ":1781,"çĶŁäº§":1782,"çĽĳ":1783,"ç¼ĵ":1784,"éĴŁ":1785,"åĲįç§°":1786,"è¿İ":1787,"é£İæł¼":1788,"ç»ĵæŀĦ":1789,"çķĻ":1790,"å°¼":1791,"çĻ¾":1792,"çļĦæĸ¹æ³ķ":1793,"å½ĵåľ°":1794,"å¹´è½»":1795,"ç»ıéªĮ":1796,"å®ĥçļĦ":1797,"çī¹å¾ģ":1798,"åıĺå¾Ĺ":1799,"çĸ«":1800,"æ³¢":1801,"äº®":1802,"çłģ":1803,"é£Łåĵģ":1804,"çĤ¼":1805,"è¡Įä¸ļ":1806,"åľ¨è¿Ļä¸ª":1807,"åķĨåĵģ":1808,"äº«åıĹ":1809,"å¤§éĩı":1810,"é¢ľèī²":1811,"å¯»æī¾":1812,"åªĴä½ĵ":1813,"å¦ĤæŀľæĤ¨":1814,"è¡¡":1815,"å¼Ĥ":1816,"å¿ĥçĲĨ":1817,"çļĦæµ":1818,"ç½Ĺ":1819,"çļĦæĸĩæľ¬":1820,"éĿĴ":1821,"æĭŁ":1822,"æľ¨":1823,"åĤ":1824,"è®¨è®º":1825,"è¡ĮåĬ¨":1826,"è´£":1827,"çļ®":1828,"æ´²":1829,"åĲ§":1830,"é¡»":1831,"è´ŁéĿ¢":1832,"ä¸Ģå®ļ":1833,"åħħæ»¡":1834,"åıĤåĬł":1835,"å¨ģ":1836,"ä¸ºä»Ģä¹Ī":1837,"ĥåľ":1838,"âĢĿãĢĤ":1839,"å¼Ģåıĳ":1840,"è¯ĳ":1841,"èĳĹåĲį":1842,"ä»·æł¼":1843,"æ¯ıä¸ªäºº":1844,"åŀĥåľ":1845,"åŀĥåľ¾":1846,"ä¼¤":1847,"éĥ¨çĶµå½±":1848,"æ¯ıå¤©":1849,"ä¸Ńå¿ĥ":1850,"å·¥åħ·":1851,"çŁ¥è¯Ĩ":1852,"ĊĊ":1853,"ãĢĤ\"":1854,"æ±½è½¦":1855,"ä¸ĢæŃ¥":1856,"è®¾å¤ĩ":1857,"æ¯į":1858,"ç¾¤":1859,"æ»©":1860,"åħ´è¶£":1861,"åĩºäºĨ":1862,"èĶ¬":1863,"ç´§":1864,"åĮĹäº¬":1865,"åľºæĻ¯":1866,"ä½ľåĵģ":1867,"åĵģçīĮ":1868,"ä¸ĵä¸ļ":1869,"ä»į":1870,"æĶ¹åĸĦ":1871,"åľŁ":1872,"éĤ®":1873,"è¿Ļä¸ªéĹ®é¢ĺ":1874,"çļĦæ¸":1875,"æł¹æį®ç»Ļå®ļçļĦ":1876,"æĽ¿":1877,"çļĦæķħäºĭ":1878,"æĪĳä¼ļ":1879,"è®²è¿°":1880,"è¿Ļåı¥è¯Ŀ":1881,"ç¾İä¸½":1882,"çļĦæŃ":1883,"çļĦæĶ":1884,"å¸®æĪĳ":1885,"éĩİ":1886,"èĪĴéĢĤ":1887,"åĪĽæĸ°":1888,"éĺ¿":1889,"çľł":1890,"ä¸ĢçĽ´":1891,"æīĭæľº":1892,"ç§ĺ":1893,"åº§":1894,"æ¼«":1895,"æ·±åº¦":1896,"è¯¢":1897,"åĩ»":1898,"çļĦçĶµå½±":1899,"æĶ¾æĿ¾":1900,"é¡¹çĽ®":1901,"åŃ©åŃĲ":1902,"èĥľ":1903,"çģµ":1904,"çŃĳ":1905,"éĢłæĪĲ":1906,"æħ¢":1907,"éĢĲ":1908,"å·ŀ":1909,"è¶ĭ":1910,"éĩįæĸ°":1911,"19":1912,"éĩĳèŀį":1913,"è§īå¾Ĺ":1914,"å·¨":1915,"ä¼ĳ":1916,"çł´":1917,"ä»¥ä¸ĭæĺ¯":1918,"çĩ":1919,"äºĭæĥħ":1920,"åĲ¸å¼ķ":1921,"åĪ¤æĸŃ":1922,"åĨ³å®ļ":1923,"èģĬ":1924,"èĶ¬èıľ":1925,"éĢģ":1926,"å½ķ":1927,"æ¤įçī©":1928,"çļĦçŁ":1929,"çĹĩ":1930,"èĢĮä¸Ķ":1931,"çĿ¡":1932,"ä¸ŃæıĲåıĸåĩº":1933,"èŃ¦":1934,"æķ°åŃĹ":1935,"åį°":1936,"åĨĽ":1937,"éĶ»":1938,"åįı":1939,"å·®":1940,"åī©":1941,"åı¦å¤ĸ":1942,"éļĲ":1943,"éĶ»çĤ¼":1944,"ä½³":1945,"æŃ¢":1946,"æĪĳåı¯ä»¥":1947,"é©¶":1948,"ä¸Ģæ¬¡":1949,"æ¸Ĳ":1950,"æĢ§çļĦ":1951,"çľĭåĪ°":1952,"å»ºçŃĳ":1953,"ç¿»è¯ĳ":1954,"å°Ĭ":1955,"éĩĩçĶ¨":1956,"æľīä»Ģä¹Ī":1957,"æ²³":1958,"éĶĢåĶ®":1959,"åı¯æĮģç»Ń":1960,"çºª":1961,"æĩ":1962,"çľ¼":1963,"è¶ĭåĬ¿":1964,"å¿ħé¡»":1965,"èª":1966,"é¢ĳ":1967,"æ°§":1968,"ç®Ģæ´ģ":1969,"æĸĩç«łä¸Ń":1970,"å°Ĩåħ¶":1971,"æ¢¦":1972,"åĽ¢éĺŁ":1973,"æĺ¨":1974,"ä¸įä¼ļ":1975,"éĴ±":1976,"æĿ¿":1977,"é©¾":1978,"ç»ª":1979,"ç§ģ":1980,"åĪ¶å®ļ":1981,"ä»¥ä¸Ĭ":1982,"åĬ©äºİ":1983,"åį«":1984,"åĵĪ":1985,"å¤įæĿĤ":1986,"åĪĿ":1987,"çļĦçł":1988,"å¿«éĢŁ":1989,"åĬ±":1990,"åľ°åĮº":1991,"çī¹çĤ¹":1992,"èĩªçĶ±":1993,"Ġ\"":1994,"æķ°åŃ¦":1995,"è¿Ļæ®µæĸĩæľ¬":1996,"çī¹åĪ«":1997,"æ¶ī":1998,"ä¸Ģåıª":1999,"éĥ½æľī":2000,"ä»£è¡¨":2001,"å±ŀäºİ":2002,"çĦ¶èĢĮ":2003,"æĥ³è¦ģ":2004,"åĨľ":2005,"çļĦæĳ":2006,"æĺ¯åľ¨":2007,"æĸĩåŃĹ":2008,"æĳĦ":2009,"èģĮä¸ļ":2010,"æĥ¯":2011,"çļĦæ²":2012,"è´¢":2013,"å¿Ĺ":2014,"è¡Ģ":2015,"çĽ®åīį":2016,"èĹ":2017,"ä¸ºæĤ¨":2018,"è¯Ħä»·":2019,"çĸĳ":2020,"å®ŀä½ĵ":2021,"æĲŃ":2022,"ä¼¦":2023,"ä¾Ŀ":2024,"éĻįä½İ":2025,"åĨ·":2026,"éĴĪ":2027,"å°ļ":2028,"éĺ³åħī":2029,"ç»ıåİĨ":2030,"å²ģ":2031,"å°½ç®¡":2032,"åºķ":2033,"åĲĪä½ľ":2034,"å©":2035,"æĬ¥éģĵ":2036,"åħ¬åı¸çļĦ":2037,"å¾Īå¥½":2038,"åı¯ä»¥éĢļè¿ĩ":2039,"çļĦçĶŁæ´»":2040,"æ·»":2041,"ä¸įè¦ģ":2042,"éĤ®ä»¶":2043,"æĺ¯æĮĩ":2044,"ç²ī":2045,"çļĦæĮ":2046,"äººå·¥æĻºèĥ½åľ¨":2047,"åĬłå¼º":2048,"çĽĸ":2049,"ç»§":2050,"åįļ":2051,"ç®ĢçŁŃ":2052,"æķ°éĩı":2053,"çī©è´¨":2054,"ç¼ĸåĨĻ":2055,"ä¿ĥè¿Ľ":2056,"ä½łèĥ½":2057,"æĥĬ":2058,"çīĪ":2059,"åħ±åĲĮ":2060,"çļĦæĦŁ":2061,"ç¾İé£Ł":2062,"è®©æĪĳ":2063,"å¼ºè°ĥ":2064,"è¿ĻéĩĮ":2065,"çļĦå»ºè®®":2066,"æ±ĩ":2067,"æľīåĬ©äºİ":2068,"ä¸ĬæľĢ":2069,"è¿Ļéĥ¨çĶµå½±":2070,"å¹¸":2071,"åĪļ":2072,"å°Ħ":2073,"çļĦæ¯":2074,"æĹ¨":2075,"ä¹łæĥ¯":2076,"åŁºç¡":2077,"è°¢è°¢":2078,"åŁºç¡Ģ":2079,"éĩįåĨĻ":2080,"åıĮ":2081,"æľīå¾Īå¤ļ":2082,"ç¤¼":2083,"èģĶç½ĳ":2084,"æľīäºĽ":2085,"èĻļ":2086,"æķ´ä¸ª":2087,"ä¸ĢåĲį":2088,"ç§»":2089,"ä½¿å¾Ĺ":2090,"èĪŀ":2091,"åĨ³çŃĸ":2092,"éĵģ":2093,"åĬĽåĴĮ":2094,"åį´":2095,"åĮ»åŃ¦":2096,"äº¤æµģ":2097,"å½¢å¼ı":2098,"åį±":2099,"ä¸įéĶĻ":2100,"å±Ģ":2101,"çļĦæķ°æį®":2102,"æĬĢèĥ½":2103,"å¡ĳ":2104,"âĢĶ":2105,"åįĪ":2106,"èĮ¶":2107,"è¿Ļæĺ¯ä¸Ģ":2108,"æĤ£èĢħ":2109,"ç¥¨":2110,"å®ĩ":2111,"åŁºæľ¬":2112,"æľ¬æĸĩ":2113,"æĬĢå·§":2114,"æľºåĻ¨äºº":2115,"å¯Ł":2116,"å¹»":2117,"çļĦæı":2118,"æ¯Ĵ":2119,"èģĶç³»":2120,"çļĦç¤":2121,"è¯´æĺİ":2122,"çī¹å®ļ":2123,"åı«":2124,"Ġ-":2125,"çŃīæĸ¹éĿ¢":2126,"èķ":2127,"ä»¤äºº":2128,"æĭħ":2129,"æİ¢è®¨":2130,"åķĬ":2131,"å¢ŀå¼º":2132,"é¥Ń":2133,"åĪĨéĴŁ":2134,"æĢĿèĢĥ":2135,"è¿ĩç¨ĭä¸Ń":2136,"ç¹":2137,"åįĥ":2138,"æ¯Ľ":2139,"åĸĿ":2140,"çĭ¬çī¹":2141,"è®©äºº":2142,"æıĲåĪ°":2143,"ä¸ªèĭ¹æŀľ":2144,"å®£":2145,"ä½įç½®":2146,"èĢģå¸Ī":2147,"å³°":2148,"ç«ŀ":2149,"è±Ĩ":2150,"çº³":2151,"æ¬¢è¿İ":2152,"è¯ŃéŁ³":2153,"æĸĩæľ¬ä¸Ń":2154,"èĸ":2155,"ç¬¬äºĮ":2156,"éŀ":2157,"æĬ½":2158,"ä»ĺ":2159,"å¥¥":2160,"æ©Ļ":2161,"åıªæľī":2162,"åĿĲ":2163,"éĢŁåº¦":2164,"ä»¥ä¾¿":2165,"è¡ĮæĺŁ":2166,"ç«¯":2167,"ç»Ŀ":2168,"æĸĩåŃ¦":2169,"éĢı":2170,"è¿Ľä¸ĢæŃ¥":2171,"èģļ":2172,"æĦŁè§ī":2173,"è·Ł":2174,"è¯¾":2175,"è¾ĵåĩº":2176,"å®¹æĺĵ":2177,"æĦŁè°¢":2178,"ç¤¾äº¤åªĴä½ĵ":2179,"å½¢æĪĲ":2180,"æī§":2181,"çģ¾":2182,"æŃ£éĿ¢":2183,"ä¹ħ":2184,"çļĦæ°´":2185,"ä½Ļ":2186,"é¡º":2187,"çļĦçľ":2188,"æĦ¿":2189,"çĦ¦":2190,"é¹":2191,"é©¾é©¶":2192,"çĮ®":2193,"ç»ĦæĪĲ":2194,"ç¬ĳ":2195,"è¿Ļæĺ¯ä¸Ģä¸ª":2196,"å®ŀéĻħ":2197,"æ¶īåıĬ":2198,"çıŃ":2199,"å¤§åĪ©":2200,"æ·±åº¦åŃ¦ä¹ł":2201,"çĥĪ":2202,"åĪĽæĦı":2203,"çļĦæĬĢæľ¯":2204,"è¿Ļä¸Ģ":2205,"åģ¥èº«":2206,"èĪ¬":2207,"èĪª":2208,"æ¦Ĥæĭ¬":2209,"åįĬ":2210,"ç»ĥä¹ł":2211,"åģļåĩº":2212,"åŃ¦æł¡":2213,"é¾Ļ":2214,"çļĦä¸»é¢ĺ":2215,"ä¸įåı¯":2216,"æĿ¡ä»¶":2217,"åıĺæļĸ":2218,"äººåĳĺ":2219,"åĲįåŃĹ":2220,"é¼ĵ":2221,"æıĲä¾ĽäºĨ":2222,"èĲ¥åħ»":2223,"ç»§ç»Ń":2224,"çļĦæĹ¶éĹ´":2225,"ç¼ĸç¨ĭ":2226,"åĳĺå·¥":2227,"åĲįè¯į":2228,"çİĽ":2229,"æĦıè¯Ĩ":2230,"éĵ¾":2231,"æķħ":2232,"åı¯ä»¥åľ¨":2233,"ç»ıå¸¸":2234,"é«ĺçļĦ":2235,"æĸ¹åĲĳ":2236,"è´Ńçī©":2237,"èĥĮæĻ¯":2238,"èĩªæĪĳ":2239,"åĨ¬":2240,"éĢĤå½ĵ":2241,"æĦıä¹ī":2242,"éĵ¶":2243,"æ°´å¹³":2244,"å¤ļä¸ª":2245,"èĮĥåĽ´":2246,"ä»İæĸĩç«ł":2247,"é¢Ŀ":2248,"çļĦå¤©æ°Ķ":2249,"æĭ¿":2250,"å¤ļç§į":2251,"è¯ĹæŃĮ":2252,"åĽ¾åĥı":2253,"åħ°":2254,"ä¸¥éĩį":2255,"å®ĺ":2256,"åĳ¼åĲ¸":2257,"çī©åĵģ":2258,"ä¼´":2259,"æĮīçħ§":2260,"éŀĭ":2261,"å¦Ĥä¸ĭ":2262,"åºĶå¯¹":2263,"è¿·":2264,"çļĦå°ı":2265,"å®ł":2266,"èĲ¨":2267,"å¸¸è§ģ":2268,"å¤ıå¤©":2269,"æ¸ħæĻ":2270,"æ»¡è¶³":2271,"ç¢³":2272,"åĲĮæĹ¶ä¹Ł":2273,"è½¯ä»¶":2274,"å¹³è¡¡":2275,"æ´ŀ":2276,"å¯¹è¯ĿåĨħå®¹":2277,"æľ«":2278,"é¡¾":2279,"çŁŃè¯Ń":2280,"æĬ±":2281,"åİ»äºĨ":2282,"ä¼ļè®®":2283,"ä¼°":2284,"éª¤":2285,"ç±»åĪ«":2286,"æ£ĢæŁ¥":2287,"çļĦçĪ":2288,"åĢĭ":2289,"åĭĩ":2290,"ä¸ĭæĿ¥":2291,"è¯·ä½ł":2292,"15":2293,"æĽ¾":2294,"çĨŁ":2295,"ç»ıåħ¸":2296,"éĽª":2297,"çºł":2298,"æľ¬ä¹¦":2299,"ç¹ģ":2300,"èµı":2301,"æĲľ":2302,"å¼ķèµ·":2303,"æıĲåĪ°äºĨ":2304,"äºĭå®ŀ":2305,"ç©ºæ°Ķ":2306,"æľĹ":2307,"çļĦæłĩ":2308,"ä½įäºİ":2309,"åŃ¤":2310,"åģı":2311,"åıĤä¸İ":2312,"åĿı":2313,"è¸":2314,"æ´Ĺ":2315,"è¯»èĢħ":2316,"Ġåľ¨":2317,"åħĥç´ł":2318,"éŃĶ":2319,"çļĦåħ³éĶ®":2320,"æĬķèµĦ":2321,"çĶµè§Ĩ":2322,"æĦī":2323,"å½ĵçĦ¶åı¯ä»¥":2324,"ä»Ģä¹Īæĺ¯":2325,"æ³³":2326,"åķĨä¸ļ":2327,"æĹ¥å¸¸":2328,"ç¨³":2329,"æĽ´å¥½çļĦ":2330,"æĺ¨å¤©":2331,"è°Ī":2332,"åĪĨäº«":2333,"ç§ĳåŃ¦å®¶":2334,"éĿ¢ä¸´":2335,"çľģ":2336,"åĩºæĿ¥":2337,"çļĦçłĶç©¶":2338,"æŁĶ":2339,"çķħ":2340,"å§Ĩ":2341,"åĢ¼å¾Ĺ":2342,"çļĦæĸ¹å¼ı":2343,"æ¸©åº¦":2344,"çĶľ":2345,"æ²ī":2346,"è·Ŀ":2347,"åģľ":2348,"æİĴæĶ¾":2349,"è´µ":2350,"éĢĶ":2351,"æ·»åĬł":2352,"è¿ĩåİ»":2353,"å®łçī©":2354,"åĬĽéĩı":2355,"éĢīé¡¹":2356,"é¥°":2357,"æľīçĿĢ":2358,"æĪĳåĸľæ¬¢":2359,"çĨĬ":2360,"éħ±":2361,"è¶ħè¿ĩ":2362,"æķĪæŀľ":2363,"èĤ¡":2364,"è°ģ":2365,"çİ°å®ŀ":2366,"å²Ľ":2367,"åı£æĦŁ":2368,"å°Ĩä¼ļ":2369,"éħ¸":2370,"éĻĪ":2371,"ç³»åĪĹ":2372,"ï¼ģ<|":2373,"åĽ½å®¶":2374,"çļĦå·¥ä½ľ":2375,"çļĦç¬":2376,"ç¾İåĳ³":2377,"ä¼½":2378,"ï¼ĮâĢľ":2379,"æŃ»":2380,"å¹³åĿĩ":2381,"å¥ĸ":2382,"æĴŃ":2383,"è¿ĽæŃ¥":2384,"éľ²":2385,"å¤«":2386,"éĿł":2387,"æ¬§":2388,"ç³ķ":2389,"æ£®":2390,"å¿ĺ":2391,"å¤§åŃ¦":2392,"äººçī©":2393,"æİĮ":2394,"å®Ļ":2395,"ç¥ŀç»ı":2396,"çļĦæ®":2397,"æľĢåĸľæ¬¢":2398,"åĪĽå»º":2399,"åħ¨çĲĥåıĺæļĸ":2400,"éĢĤåºĶ":2401,"èĨ":2402,"çŃīé¢ĨåŁŁ":2403,"éĴĪå¯¹":2404,"æĺİå¤©":2405,"ä»İè¿Ļç¯ĩæĸĩç«ł":2406,"åŁ¹":2407,"å¿Ĩ":2408,"è´§":2409,"12":2410,"çļĦæĥħåĨµ":2411,"äºĴèģĶç½ĳ":2412,"æľīä¸Ģä¸ª":2413,"ä¹īè¯į":2414,"è°ĥæķ´":2415,"å¥Ĺ":2416,"å®ĩå®Ļ":2417,"çļĦæľĢ":2418,"åĨĻä½ľ":2419,"ä¹³":2420,"éĿ©":2421,"çĽ¸åĲĮ":2422,"åıĸå¾Ĺ":2423,"çļĦåľ°æĸ¹":2424,"åĲĪéĢĤ":2425,"ľä¼½":2426,"ä¿®æĶ¹":2427,"è¿Ļä¸ªåı¥åŃĲ":2428,"30":2429,"çļĦæ´":2430,"è§Ĩè§ī":2431,"è®©æĪĳä»¬":2432,"æ¸ħæĻ°":2433,"æĪĳä»¬åºĶè¯¥":2434,"çĪ±æĥħ":2435,"åī©ä¸ĭ":2436,"æ¥¼":2437,"çº½":2438,"å°ıæĹ¶":2439,"æ³ķå¾ĭ":2440,"éģĹ":2441,"æĥħèĬĤ":2442,"ä¸Ģé¦ĸ":2443,"é«ĺæķĪ":2444,"æ·±åħ¥":2445,"æļĹ":2446,"å½¢å®¹":2447,"æı¡":2448,"æī¿":2449,"èĲ¥éĶĢ":2450,"æ··":2451,"åĽłä¸ºå®ĥ":2452,"åĨĴ":2453,"åĪĽä½ľ":2454,"è·³":2455,"åĽ°éļ¾":2456,"æĹ¥æľ¬":2457,"åĢĴ":2458,"ä¸ªç³ĸæŀľ":2459,"åľ°çĤ¹":2460,"ç§Ģ":2461,"èĹı":2462,"æµ·æ´ĭ":2463,"ä»ĭç»įäºĨ":2464,"åºĬ":2465,"æ±Ł":2466,"çŃĸçķ¥":2467,"çļĦæ®µ":2468,"æ½ľ":2469,"éļĲç§ģ":2470,"è¶³å¤Ł":2471,"è¯įæ±ĩ":2472,"çĽ¸ä¼¼":2473,"æĹ¶å°ļ":2474,"æ±ī":2475,"æĹ¥æľŁ":2476,"ç£":2477,"å·§åħĭ":2478,"éģĵå¾·":2479,"å¡ĳæĸĻ":2480,"èĭ±è¯Ń":2481,"çļĦå¤§":2482,"çļĦè¯Ŀ":2483,"çļĦçĥ":2484,"ç½ĳç«Ļ":2485,"æ±¤":2486,"æ£Ĵ":2487,"å·¦":2488,"ä¼ĺåĮĸ":2489,"100":2490,"çļĦæ°Ķ":2491,"çļĦæ®µèĲ½":2492,"å¿«ä¹Ĳ":2493,"çļĦç¤¾":2494,"ç»ĨèĬĤ":2495,"æĵį":2496,"ä¾ĭåŃĲ":2497,"å¹¶åľ¨":2498,"éĨĴ":2499,"æ¸¸æ³³":2500,"å®Ī":2501,"ç»¿èī²":2502,"çĦ¦èĻĳ":2503,"æļ´":2504,"èį¯çī©":2505,"å®ĥä»¬çļĦ":2506,"åĪĨç±»ä¸º":2507,"éļľ":2508,"çĻ»":2509,"è´£ä»»":2510,"è¢ĭ":2511,"æľĿ":2512,"æĺ¯çļĦ":2513,"æıĲåĩº":2514,"åŃ£èĬĤ":2515,"æł¹æį®ä»¥ä¸ĭ":2516,"ä¿Ŀåģ¥":2517,"æĹłè®º":2518,"æ¶Īè´¹":2519,"é¡¿":2520,"ä»įçĦ¶":2521,"çļĦæĹ¶åĢĻ":2522,"ä¸Ģç¯ĩæĸĩç«ł":2523,"æĬ¥åĳĬ":2524,"æĶ¿çŃĸ":2525,"å¹¿åĳĬ":2526,"çļĦå¥½":2527,"çģ¯":2528,"ä»¥ä¸ĭæĺ¯ä¸Ģ":2529,"å¹³åı°":2530,"åĲĪçĲĨ":2531,"åı³":2532,"çļĦéĩįè¦ģæĢ§":2533,"ç»ŃåĨĻ":2534,"çļĦé£Łçī©":2535,"å¤ļæł·":2536,"æ¨¡å¼ı":2537,"å°ģ":2538,"äººå·¥æĻºèĥ½çļĦ":2539,"å·§åħĭåĬĽ":2540,"ç¥ŀç§ĺ":2541,"åĹ":2542,"ŁéĢļ":2543,"è¡Ĺ":2544,"å¢ŀéķ¿":2545,"åľ¨å®¶":2546,"..":2547,"çĬ¯":2548,"ç®±":2549,"æµĵ":2550,"åıįåºĶ":2551,"ä¸įè¿ĩ":2552,"çĹĽ":2553,"ä¸Ģæł·":2554,"åľĨ":2555,"å°ıæĺİæľī":2556,"èĢĲ":2557,"å¹¸ç¦ı":2558,"æĮ¥":2559,"æĬĺ":2560,"å¸¦æĿ¥äºĨ":2561,"æĭ¼":2562,"åĺ":2563,"åĮĸçļĦ":2564,"ç¬¦åĲĪ":2565,"èĦĤ":2566,"æĶ¹è¿Ľ":2567,"çĳľä¼½":2568,"å¡Ķ":2569,"æĲľç´¢":2570,"çĬ¶æĢģ":2571,"åĨ²":2572,"åı£åĳ³":2573,"åĪ¶éĢł":2574,"çļĦæµ·":2575,"çĶµèĦĳ":2576,"å¿ħè¦ģ":2577,"ç¼ĵè§£":2578,"50":2579,"ä¹İ":2580,"æķĳ":2581,"æĦŁåıĹ":2582,"æĬĹ":2583,"çº½çº¦":2584,"çī©çĲĨ":2585,"Ġ=":2586,"è£¤":2587,"çº¸":2588,"æĺİç¡®":2589,"äººåĲį":2590,"è¯įè¯Ń":2591,"çļĦæĳĺè¦ģ":2592,"åħ¶æ¬¡":2593,"ä¸Ĭåįĩ":2594,"èĦļ":2595,"é¼ĵåĬ±":2596,"æŃ£ç¡®çļĦ":2597,"ç«ŀäºī":2598,"ç«¥":2599,"åį³åı¯":2600,"æĢ»æĺ¯":2601,"éĹ²":2602,"çļĦä¸»":2603,"åľ°æĸ¹":2604,"åĬ¨ä½ľ":2605,"æĥħç»ª":2606,"æł¸":2607,"å·¥ç¨ĭ":2608,"åĪĨç»Ļ":2609,"ç±į":2610,"æıĲä¾Ľä¸Ģä¸ª":2611,"æ½®":2612,"éĢĲæ¸Ĳ":2613,"çİ°è±¡":2614,"åıĹæ¬¢è¿İ":2615,"åĽ½éĻħ":2616,"è¿½æ±Ĥ":2617,"éĻĲåĪ¶":2618,"é»İ":2619,"å®¶å±ħ":2620,"æŁĲäºĽ":2621,"ä¹ĭåīį":2622,"åĩıè½»":2623,"è¾Ĩ":2624,"æ¬£":2625,"è´¡":2626,"æ°¸":2627,"ä¸ĸçºª":2628,"çħ®":2629,"æµĭè¯ķ":2630,"çĽĲ":2631,"åĳ³éģĵ":2632,"è·Ŀç¦»":2633,"æĻ¯çĤ¹":2634,"æıĲåįĩ":2635,"ä¸Ģåı¥è¯Ŀ":2636,"èĿ":2637,"18":2638,"å¤ªç©º":2639,"èĤ¤":2640,"åºĶçĶ¨äºİ":2641,"ä¸Ŀ":2642,"çĶŁæĢģç³»ç»Ł":2643,"æĲŃéħį":2644,"è°·":2645,"ä¸ĸçķĮä¸ĬæľĢ":2646,"±ä¹Ĳ":2647,"çĤº":2648,"åħ¬åħ±":2649,"æİ¨åĬ¨":2650,"ä¸ĭæĸĩ":2651,"è®©ä½ł":2652,"ä»¿":2653,"éĶħ":2654,"å®ŀéªĮ":2655,"åº¦åĴĮ":2656,"éĸ":2657,"åĵªä¸ª":2658,"ç»¼":2659,"ç¥Ŀ":2660,"æĻļä¸Ĭ":2661,"ä¸Ģå®¶":2662,"ä¸ªæĢ§":2663,"ä½¿åħ¶æĽ´åĬł":2664,"çº¢èī²":2665,"ç©ºéĹ´":2666,"å¼łä¸ī":2667,"çĶ¨æĿ¥":2668,"è§£åĨ³æĸ¹æ¡Ī":2669,"åĢĳ":2670,"æ±ł":2671,"æ©ĻåŃĲ":2672,"å¤ıåŃ£":2673,"æĪĲéķ¿":2674,"çļĦåĨħå®¹":2675,"å¸ģ":2676,"æĦıæĢĿ":2677,"æĿĳ":2678,"è´¡çĮ®":2679,"æĺ¯çĶ±":2680,"éĵħ":2681,"æ¹ĸ":2682,"çļĦæ³":2683,"çĽĺ":2684,"å±ķç¤º":2685,"çīĽå¥¶":2686,"ä¹ĺ":2687,"è¯Ħä¼°":2688,"èµŀ":2689,"åĲ«ä¹ī":2690,"ä¸¤ä¸ªåı¥åŃĲ":2691,"æ°Ķä½ĵ":2692,"å¿Ļ":2693,"è²":2694,"æľºæŀĦ":2695,"æŃ§":2696,"æĹ©ä¸Ĭ":2697,"__":2698,"æľªæĿ¥çļĦ":2699,"åİŁå§ĭ":2700,"åĬ³":2701,"å¥³æĢ§":2702,"çĬ¶åĨµ":2703,"å®«":2704,"å®Įåħ¨":2705,"æ±ģ":2706,"åĴĮåħ¶ä»ĸ":2707,"çļĦåİĨåı²":2708,"æī©":2709,"ãĢĤâĢĿ<|":2710,"ä¸ĢèĪ¬":2711,"åİļ":2712,"ç»Ļåĩºä¸Ģä¸ª":2713,"è°ĥæŁ¥":2714,"åľ¨çº¿":2715,"èİ·åıĸ":2716,"æķ£æŃ¥":2717,"å¥ĭ":2718,"å°Ĭéĩį":2719,"æĿ¥èĩª":2720,"çĶŁæ´»ä¸Ń":2721,"æĪ·å¤ĸ":2722,"åĤ¨":2723,"è®°å½ķ":2724,"è¿Ļå®¶":2725,"ç¯®":2726,"çĽ¸ä¿¡":2727,"åĮ»çĸĹä¿Ŀåģ¥":2728,"åĲ¯":2729,"ä¸ľè¥¿":2730,"æ»ĳ":2731,"çĽ´æİ¥":2732,"æĪĲæľ¬":2733,"ä¹Łä¼ļ":2734,"åĪĹè¡¨":2735,"åı¯èĥ½æĺ¯":2736,"æĬĢæľ¯çļĦ":2737,"æĦıåĳ³":2738,"æĺł":2739,"å°į":2740,"åħŃ":2741,"è¾¾åĪ°":2742,"çļĦæĢĿ":2743,"åĽŀçŃĶéĹ®é¢ĺ":2744,"ç½ª":2745,"å¥¹çļĦ":2746,"ä¸įçŁ¥éģĵ":2747,"çłĶ":2748,"è®ºæĸĩ":2749,"å¾Ħ":2750,"åºĶçĶ¨ç¨ĭåºı":2751,"æĦıå¤§åĪ©":2752,"ä¸Ĭæµ·":2753,"æĪĳè®¤ä¸º":2754,"å¦Ī":2755,"éĵħç¬Ķ":2756,"åĨł":2757,"éĤ£éĩĮ":2758,"æĸ¹ä¾¿":2759,"çİī":2760,"åĪĨåĪ«":2761,"æĪĳå¾Ī":2762,"è¡¨è¾¾äºĨ":2763,"ç¼©":2764,"éĢĻ":2765,"çĥ§":2766,"åŃ¦ä¹łåĴĮ":2767,"ç»Ļä½ł":2768,"æĿ°":2769,"æŃ¥éª¤":2770,"æįŁ":2771,"èĳĹåĲįçļĦ":2772,"å·´é»İ":2773,"æ·±åĪ»":2774,"æĢ¥":2775,"éģį":2776,"ç¨³å®ļ":2777,"æ´¾":2778,"éº¦":2779,"èĽĭçĻ½":2780,"è¶³çĲĥ":2781,"åĽº":2782,"èĩ³å°ĳ":2783,"éĩıåŃĲ":2784,"ä¸Ģå¤©":2785,"åĩī":2786,"æĶ¹åĨĻ":2787,"æŀ¶":2788,"åı¯ä»¥ä½¿çĶ¨":2789,"è¿Ļç¯ĩ":2790,"æĸĹ":2791,"çĩĥ":2792,"æĸ°éĹ»æĬ¥éģĵ":2793,"æĦıåĳ³çĿĢ":2794,"æĽ¿æį¢":2795,"åĳĪ":2796,"çİ¯å¢ĥä¿ĿæĬ¤":2797,"é¥¼":2798,"åĪº":2799,"å®½":2800,"çĤĴ":2801,"åıĳå¸ĥ":2802,"åĮĸåŃ¦":2803,"éĻĦ":2804,"æŃī":2805,"è¡¨éĿ¢":2806,"ä½Ľ":2807,"åĿļæĮģ":2808,"å½ĵåīį":2809,"åı¥åŃĲä¸Ń":2810,"å¤©ç©º":2811,"ç±»ä¼¼":2812,"äººçĶŁ":2813,"çļĦäºĭæĥħ":2814,"éľĩ":2815,"åģ¥åº·çļĦ":2816,"æ°Ķæ¸©":2817,"ä¸Ģç»Ħ":2818,"çļĦä¸Ģä¸ª":2819,"æģ¶":2820,"æĿŁ":2821,"å¹¶ä¸į":2822,"èĩªè¡Į":2823,"æĶ»":2824,"ä»¥ç¡®ä¿Ŀ":2825,"åºŁ":2826,"åĶ±":2827,"éĽħ":2828,"ç»©":2829,"on":2830,"å¯Ĵ":2831,"æĤ¦":2832,"ä¿Ŀè¯ģ":2833,"çŃ¾":2834,"çļĦæ´»":2835,"è®¢":2836,"æ¯ıä¸ªæľĭåıĭ":2837,"åĪĨåĪ°":2838,"å°¤":2839,"çĽ¸åħ³çļĦ":2840,"å¹ħ":2841,"æİ¨å¹¿":2842,"çļĦç³":2843,"æ¶¦":2844,"è¡£æľį":2845,"åºĵ":2846,"çīĻ":2847,"ç»ĺ":2848,"éľĢè¦ģæ³¨æĦı":2849,"¡èĲ":2850,"çľŁæŃ£":2851,"åĬ¨è¯į":2852,"æī§è¡Į":2853,"ä¼ĺåĬ¿":2854,"æİī":2855,"æģĲ":2856,"æĢĿæĥ³":2857,"åı¯ä»¥è¢«":2858,"èĥ½éĩı":2859,"èĤĮ":2860,"èĭ¦":2861,"çĽĽ":2862,"æİ¥åıĹ":2863,"ç§ĳå¹»":2864,"å®ļä¹ī":2865,"æ¤Ĵ":2866,"çļĦæĸ°":2867,"æ¨¡æĭŁ":2868,"çıį":2869,"ä¸Ģä¸ªäºº":2870,"åı¯æĮģç»Ńåıĳå±ķ":2871,"å¾ª":2872,"éªĳ":2873,"å®īæİĴ":2874,"èĢĮä¸įæĺ¯":2875,"å¼ĥ":2876,"ç»ĵåĲĪ":2877,"çļĦæĻº":2878,"çļĦçĭ":2879,"æ£®æŀĹ":2880,"æĺİäºĨ":2881,"åıĳæĮ¥":2882,"åĴĮæĸĩåĮĸ":2883,"è½»æĿ¾":2884,"çļĦçĪ±":2885,"ä½łéľĢè¦ģ":2886,"ä¸»ä¹ī":2887,"ä¸ĭåĪĹ":2888,"ä½łå¥½":2889,"åĩºèī²":2890,"çļĦæıı":2891,"è¯·åĳĬè¯īæĪĳ":2892,"çĽ¸äºĴ":2893,"çļĦæĦıæĢĿ":2894,"ä¸ŃæľĢ":2895,"çĿ¡çľł":2896,"å®¶äºº":2897,"æıĲä¾Ľä¸ĢäºĽ":2898,"èĤ¥":2899,"åħ±æľī":2900,"ä¼ĺç§Ģ":2901,"äºĨä¸ĢäºĽ":2902,"å®ļæľŁ":2903,"èĭı":2904,"å©ļ":2905,"åĪĹåĩº":2906,"äººç±»çļĦ":2907,"è©":2908,"åľ¨ä¸Ģèµ·":2909,"è·µ":2910,"ç»Ļå®ļä¸Ģä¸ª":2911,"å¨±ä¹Ĳ":2912,"å°¾":2913,"æĵįä½ľ":2914,"çļĦçģ":2915,"è§Ĥä¼Ĺ":2916,"æ³¨éĩį":2917,"çĥŁ":2918,"é«ĺåħ´":2919,"æµģè¡Į":2920,"çĽ®çļĦåľ°":2921,"æĺ¯ä¸Ģéĥ¨":2922,"çµ":2923,"å¤§å®¶":2924,"çĶŁåŃĺ":2925,"ä¹Łæľī":2926,"èĽĭç³ķ":2927,"æīĢæľīçļĦ":2928,"ç¿°":2929,"çĽ¸å¯¹":2930,"æ¹¿":2931,"æĪĳåľ¨":2932,"èī¯å¥½çļĦ":2933,"çļĦæ¦Ĥ":2934,"åĨĻä¸Ģç¯ĩ":2935,"éĿ¢å¯¹":2936,"ä¹¦ç±į":2937,"é¥®æĸĻ":2938,"èĥģ":2939,"éĢ»":2940,"æĹ¶ä»£":2941,"æĢ»ä¹ĭ":2942,"åĿ¦":2943,"å®ľ":2944,"ç»ĵè®º":2945,"åĮ»çĸĹé¢ĨåŁŁ":2946,"è·ĳæŃ¥":2947,"è®¿":2948,"èĪ¹":2949,"é¾Ħ":2950,"ç¨ĭåº¦":2951,"ä¾Ĩ":2952,"åı¤è¯Ĺ":2953,"éĢĤéĩı":2954,"æľµ":2955,"çľŁçļĦ":2956,"åıªæĺ¯":2957,"è¯ļ":2958,"åŃ¤çĭ¬":2959,"é¢Ħéĺ²":2960,"çļĦæĢ»":2961,"åħ¶ä¸ŃçļĦ":2962,"æİ¨çĲĨ":2963,"æİĮæı¡":2964,"æĬ½åıĸ":2965,"éĤ£äºĽ":2966,"çĶļ":2967,"åĵº":2968,"è¿Ľåħ¥":2969,"å¨ģèĥģ":2970,"æ³¡":2971,"å¥ı":2972,"å¯»æ±Ĥ":2973,"ä¸ļåĬ¡":2974,"è°±":2975,"åĵ¥":2976,"åīįå¾Ģ":2977,"æľīåĵªäºĽ":2978,"æ¼Ķåĳĺ":2979,"æµģçķħ":2980,"è¿Ľè¡ĮåĪĨç±»":2981,"202":2982,"æĮĩåĩº":2983,"è§ĦåĪĴ":2984,"å®ŀè·µ":2985,"çĭ¬çī¹çļĦ":2986,"åĳ¨åĽ´":2987,"æĪĲè¯Ń":2988,"å¹´çļĦ":2989,"æĸĩæľ¬åĨħå®¹":2990,"è¾£":2991,"ç»ıè¿ĩ":2992,"æ¸©æļĸ":2993,"ä½ĵèĤ²":2994,"çıł":2995,"éĩįçĤ¹":2996,"æŃ§è§Ĩ":2997,"çİĽä¸½":2998,"å£°éŁ³":2999,"æ¦Ĥå¿µ":3000,"æ°§åĮĸ":3001,"ä»ĸåľ¨":3002,"éĽ¶":3003,"ä¸Ńæĸĩ":3004,"åŃ¸":3005,"å¼ĢæĶ¾":3006,"åįģåĪĨ":3007,"å¾Ĺåĩº":3008,"éĢ»è¾ĳ":3009,"ç²¾ç¥ŀ":3010,"èķī":3011,"æĹ¨åľ¨":3012,"æ¶²":3013,"åĵªéĩĮ":3014,"çļĦçŁŃ":3015,"çº¦ç¿°":3016,"æ³°":3017,"çī©ä½ĵ":3018,"çĹħæ¯Ĵ":3019,"é¸¡èĽĭ":3020,"è¿ŀæİ¥":3021,"å¦Ļ":3022,"å¤ªéĺ³ç³»":3023,"èĩªåĬ¨åĮĸ":3024,"è§ĦåĪĻ":3025,"ä½¿åħ¶æĽ´":3026,"æľĢä½³":3027,"èĻļæĭŁ":3028,"éĥ½ä¼ļ":3029,"çļĦæĥ³":3030,"éķ¿åº¦":3031,"æĢĢ":3032,"ä¸Ģæ¬¾":3033,"èĩªåĬ¨é©¾é©¶":3034,"çļĦæĻ¯":3035,"æıĲåıĸåĩº":3036,"è´Ŀ":3037,"èº«ä½ĵåģ¥åº·":3038,"è½®":3039,"ä¸ĬéĿ¢":3040,"çĲĨè®º":3041,"æķ¬":3042,"èľľ":3043,"åĩĢ":3044,"éģµ":3045,"åĢ¾":3046,"èĵĿèī²":3047,"å´":3048,"é¦Ļèķī":3049,"åľ¨ä¸Ģä¸ª":3050,"çļĦé£İéĻ©":3051,"ä¹¡":3052,"äº¡":3053,"200":3054,"æµ·æ»©":3055,"æĸ°é²ľ":3056,"åħ³éĶ®ä¿¡æģ¯":3057,"æĪĳéľĢè¦ģ":3058,"åĲĦä¸ª":3059,"æĪĲä¸ºäºĨ":3060,"èĭ±åĽ½":3061,"æľīæīĢ":3062,"è¡¥":3063,"ç¾İå¥½çļĦ":3064,"èĦ±":3065,"æ··åĲĪ":3066,"åĵºä¹³":3067,"ä¼ĺçĤ¹":3068,"çĤİ":3069,"åĪĨä¸º":3070,"ï¼īï¼Į":3071,"æĺ¾ç¤º":3072,"è¿Ļæ¬¾":3073,"å¥³åŃ©":3074,"èĤ¯":3075,"åĨĻä¸Ģä¸ª":3076,"å°Ĩä»¥ä¸ĭ":3077,"æĬ±æŃī":3078,"çĶ³":3079,"å·¥ä¸ļ":3080,"ä¸»äºº":3081,"ç§¯æŀģçļĦ":3082,"è´¥":3083,"çŁŃæĸĩ":3084,"éĹŃ":3085,"éº¼":3086,"æĺ¯ä¸ŃåĽ½":3087,"åį·":3088,"èªī":3089,"é«ĺåº¦":3090,"çļĦæ´»åĬ¨":3091,"å°ıåŃ¦":3092,"çĬ¬":3093,"æ²ŁéĢļ":3094,"æĸĩåĮĸåĴĮ":3095,"æĩĤ":3096,"ãĢĭãĢģ":3097,"ç¾İä¸½çļĦ":3098,"æ¡Į":3099,"è¿¹":3100,"è¯·ç»ĻæĪĳ":3101,"èĩªè¡Įè½¦":3102,"æĺ¯ä¸Ģä½į":3103,"åħ«":3104,"æł¹æį®æıĲä¾Ľ":3105,"åľ£":3106,"æ¾":3107,"XX":3108,"éĿ¢åĮħ":3109,"å«":3110,"ç®Ģè¦ģ":3111,"ĠâĢľ":3112,"è¯ŃéŁ³è¯ĨåĪ«":3113,"éĥģ":3114,"çļĦæııè¿°":3115,"éķĩ":3116,"ç¥ŀç»ıç½ĳç»ľ":3117,"çļĦæīĭ":3118,"æĭį":3119,"éĻĪè¿°":3120,"ï¼īãĢĤ":3121,"ä¹ĭåĲİ":3122,"æłĩåĩĨ":3123,"å¹³çŃī":3124,"æĹ¶æľŁ":3125,"çļĦçŃĶæ¡Ī":3126,"èİĵ":3127,"ä¹ı":3128,"è§¦":3129,"åįļçī©":3130,"èĭĹ":3131,"åģ¥åº·é¥®é£Ł":3132,"å»¶":3133,"éŃĶæ³ķ":3134,"åºĨ":3135,"ĠĠ":3136,"æĹ¶éĹ´åĴĮ":3137,"ç¤¾åĮº":3138,"çļĦæĭ":3139,"æŁĲä¸ª":3140,"ç¬¬ä¸Ģ":3141,"å±ķçİ°":3142,"åĳ¨æľ«":3143,"æķ°æį®éĽĨ":3144,"ä»£çłģ":3145,"è½¬æį¢":3146,"è¯¾ç¨ĭ":3147,"èĢ³":3148,"æī¾åĩº":3149,"å·¦åı³":3150,"éª¨":3151,"é¢Ĩå¯¼":3152,"å¾ĹåĪ°äºĨ":3153,"åīĤ":3154,"ç§°ä¸º":3155,"è³":3156,"åı¤ä»£":3157,"ç®ĢåįķçļĦ":3158,"åĬĽçļĦ":3159,"çļĦæĢ§":3160,"æľŁéĹ´":3161,"å®Ĺ":3162,"æ¬£èµı":3163,"çļĦæİ¨":3164,"åĨįçĶŁ":3165,"æĸĩæľ¬ä¸ŃçļĦ":3166,"åĨ¥":3167,"åĪĨéħį":3168,"ä¼ĳæģ¯":3169,"æĶ¾åľ¨":3170,"æĦŁåıĹåĪ°":3171,"è¯Ńè¨Ģæ¨¡åŀĭ":3172,"çļĦæķĪ":3173,"çĴ":3174,"çļĦæĮĳæĪĺ":3175,"è®²è¿°äºĨ":3176,"æĹ§":3177,"äº¿":3178,"æ¸ħæ´ģ":3179,"åĮºåĿĹ":3180,"æħ§":3181,"åĵģè´¨":3182,"å£®":3183,"çĪ±å¥½":3184,"çĶļèĩ³":3185,"ä»Ģéº¼":3186,"çģ¾å®³":3187,"å®ĥåı¯ä»¥":3188,"å®ģ":3189,"è½½":3190,"æĺŁæľŁ":3191,"èĽĭçĻ½è´¨":3192,"åĨĴéĻ©":3193,"èĥ½åĲ¦":3194,"ä¸ĥ":3195,"ä¸ºæĪĳ":3196,"ªæĺİ":3197,"åłĤ":3198,"ĠæĪĳ":3199,"å¯¿":3200,"è¡¨æ¼Ķ":3201,"å½Ĵç±»":3202,"åıĬæĹ¶":3203,"æĪ¿éĹ´":3204,"åĮĢ":3205,"å¤§æ°Ķ":3206,"è¿Ļæľ¬ä¹¦":3207,"çĻĮ":3208,"çĭ¬ç«ĭ":3209,"æĹĭ":3210,"ãĢĭãĢģãĢĬ":3211,"çļĦåİŁåĽł":3212,"å°¤åħ¶":3213,"é¼ł":3214,"âĢĶâĢĶ":3215,"çĶŁæ´»æĸ¹å¼ı":3216,"ç§įæĹı":3217,"æĢĿç»´":3218,"æĿĢ":3219,"æĥħåĨµä¸ĭ":3220,"çľĭçĶµå½±":3221,"èĤª":3222,"èĦĤèĤª":3223,"èĮĦ":3224,"é»ĺ":3225,"åħ·ä½ĵçļĦ":3226,"å¼ºè°ĥäºĨ":3227,"çĽ¸åºĶ":3228,"æ®Ĭ":3229,"«èĲ¨":3230,"é¢Ĺç³ĸæŀľ":3231,"åĵºä¹³åĬ¨çī©":3232,"éĻ¤äºĨ":3233,"æľĢå¥½çļĦ":3234,"å®ĥæĺ¯":3235,"å®¾":3236,"å¹¶æıĲä¾Ľ":3237,"æķı":3238,"å½¢å®¹è¯į":3239,"è¿ª":3240,"è®¤è¯Ĩ":3241,"è¯º":3242,"é»ĳæ´ŀ":3243,"å®¤æ°Ķä½ĵ":3244,"çĶŁæĪĲåķĨåĵģ":3245,"æ¦":3246,"åľ¨æľªæĿ¥":3247,"äºĭçī©":3248,"æĭĮ":3249,"çļĦèĥ½åĬĽ":3250,"èĳ±":3251,"èļ":3252,"ç§įç±»":3253,"æĺĵäºİ":3254,"åĢŁ":3255,"å¼ºçĥĪ":3256,"ä¼ĳéĹ²":3257,"äºĴåĬ¨":3258,"æ¶Īè´¹èĢħ":3259,"å½¼":3260,"æ»¡æĦı":3261,"äºĨä¸Ģç§į":3262,"æľĢæĸ°":3263,"å¼¹":3264,"çļĦç©":3265,"èĦı":3266,"éĢĢ":3267,"æİ¢è®¨äºĨ":3268,"ä¹Ŀ":3269,"è°ĵ":3270,"çļĦä¸»è¦ģè§ĤçĤ¹":3271,"è¹":3272,"æľīè¶£çļĦ":3273,"æ¼Ĥ":3274,"äº¤æĺĵ":3275,"æľĢå¥½":3276,"æĹ¢":3277,"å¸Ŀ":3278,"åįļçī©é¦Ĩ":3279,"æ¶Īæŀģ":3280,"æľĥ":3281,"åĴ¨":3282,"å·Ŀ":3283,"è¿ĺéľĢè¦ģ":3284,"æ¯ıä¸ªäººéĥ½":3285,"èĢĹ":3286,"å¹´é¾Ħ":3287,"ç¶":3288,"å®Įæķ´":3289,"çĸ«æĥħ":3290,"æİ¥ä¸ĭæĿ¥":3291,"éĢĴ":3292,"Ġæııè¿°":3293,"è´ŁéĿ¢å½±åĵį":3294,"å¤ļçļĦ":3295,"çļĦç³ĸ":3296,"è¾ħ":3297,"è¿ħ":3298,"å®£ä¼ł":3299,"çĶŁéķ¿":3300,"è§Ĩé¢ĳ":3301,"è®¨è®ºäºĨ":3302,"é¡¶":3303,"çĪ¶":3304,"æĪĳæĹłæ³ķ":3305,"èº«å¿ĥ":3306,"çªĹ":3307,"ä¹Łå¾Ī":3308,"çļĦç¬¬":3309,"æĢ§èĥ½":3310,"æ³ķåĽ½":3311,"çľĭèµ·æĿ¥":3312,"åħħåĪĨ":3313,"çĵľ":3314,"èģĬå¤©":3315,"è¯Ńæ³ķéĶĻè¯¯":3316,"åĴ¨è¯¢":3317,"ç»ķ":3318,"æķ¢":3319,"è§Ī":3320,"ç¿»è¯ĳæĪĲ":3321,"æĺŁçĲĥ":3322,"äºĨè®¸å¤ļ":3323,"çļĦéŁ³ä¹Ĳ":3324,"éķ¿æľŁ":3325,"ä½łä»¬":3326,"çļĦçİ¯å¢ĥ":3327,"ä¸Ĭä¸ĭæĸĩ":3328,"åĲ¬èµ·æĿ¥":3329,"ä¸Ģæľ¬":3330,"èģªæĺİ":3331,"æĢ»ç»Ł":3332,"æĥł":3333,"çĶŁæĹ¥":3334,"éĺ¶":3335,"å¿ĥæĥħ":3336,"çļĦçĹ":3337,"åĵ²":3338,"è§Ĥå¯Ł":3339,"çļĦç²":3340,"èī²å½©":3341,"çķª":3342,"éº»":3343,"åıĺå¾ĹæĽ´åĬł":3344,"é½":3345,"çļĦæīĢ":3346,"èį£":3347,"ï¼ŁâĢĿ":3348,"å¹´æĿ¥":3349,"ä¼łæĴŃ":3350,"è§£åĨ³éĹ®é¢ĺ":3351,"åĮºåĿĹéĵ¾":3352,"æİ¨åĩº":3353,"çļĦæ¯Ķ":3354,"çļĦçŁ¥":3355,"æĺİæĺ¾":3356,"ç§»åĬ¨":3357,"çļĦæķ°éĩı":3358,"éĻĨ":3359,"éĿŀå¸¸å¥½":3360,"ç»´æĬ¤":3361,"çľĭçľĭ":3362,"é¢ĦæĬ¥":3363,"åĳĪçİ°":3364,"èī¾":3365,"çļĦç¥":3366,"å¹¶æ²¡æľī":3367,"çº¯":3368,"ä½ĨæĪĳ":3369,"å¯¹çİ¯å¢ĥ":3370,"éķľ":3371,"å·¨å¤§":3372,"çĶ²":3373,"æĻºèĥ½å®¶å±ħ":3374,"å®¡":3375,"çĸ²":3376,"çĺ":3377,"çĽ´åĪ°":3378,"åį±éĻ©":3379,"æĳĦåħ¥":3380,"éĽ·":3381,"ï¼ļãĢĬ":3382,"çªģçĦ¶":3383,"çļĦè¡Įä¸º":3384,"åĲĮä¹īè¯į":3385,"èī¯å¥½":3386,"æĭ¼åĨĻ":3387,"çļĦæ±":3388,"è¸ª":3389,"è¿ĩåº¦":3390,"ç¾İåħĥ":3391,"åĴĮç¤¾ä¼ļ":3392,"åĮºåŁŁ":3393,"å¡«":3394,"ç¡¬":3395,"çļĦéĢīæĭ©":3396,"è§Ħå¾ĭ":3397,"æĤ¨éľĢè¦ģ":3398,"èĻ«":3399,"éĵ¶è¡Į":3400,"æŃ¦":3401,"åĨ¥æĥ³":3402,"çī¹æ®Ĭ":3403,"å±ĭ":3404,"éĴ¢":3405,"åĶĲ":3406,"åĽŀå®¶":3407,"çļĦçĥŃ":3408,"æį·":3409,"Ġ2":3410,"âĢ¦":3411,"æĶ¯ä»ĺ":3412,"çĽ®çļĦ":3413,"çļĦçĿ":3414,"çļĦç¼":3415,"éļıæĹ¶":3416,"å°ıçĭĹ":3417,"çĶ°":3418,"åīįæĻ¯":3419,"çĵ¶":3420,"åı¯çĪ±":3421,"èħ¿":3422,"å»ºè®¾":3423,"çĶŁæĪĲä¸Ģæ®µ":3424,"äººæ°ĳ":3425,"ä¸°å¯ĮçļĦ":3426,"å¤§èĩªçĦ¶":3427,"çĶ¨çļĦ":3428,"åĽŀæĶ¶":3429,"ä¸ĭåįĪ":3430,"åı¹":3431,"ä»ĸä»¬çļĦå¯¹è¯ĿåĨħå®¹":3432,"å¹ķ":3433,"çļĦæ¸©":3434,"æł·çļĦ":3435,"åĦ¿ç«¥":3436,"æµ®":3437,"æ·¡":3438,"åĪĨæĪĲ":3439,"éĩįå¤į":3440,"åŃĲçļĦ":3441,"éĹª":3442,"èĦ¸":3443,"åĪ°è¾¾":3444,"æĭĽ":3445,"åŁºåĽł":3446,"å¦ĤæŃ¤":3447,"åĪĽå»ºä¸Ģä¸ª":3448,"æĪĳæľĢè¿ĳ":3449,"ç¾İå¥½":3450,"ä»İæĸĩç«łä¸ŃæıĲåıĸ":3451,"æĦīå¿«":3452,"æľīæ²¡æľī":3453,"åĵģç§į":3454,"æģ©":3455,"æĶ¾åħ¥":3456,"çļĦç¨":3457,"çļĦæ¸¸":3458,"æ´Ľ":3459,"åı¯åĨįçĶŁ":3460,"æľīè®¸å¤ļ":3461,"çĶµåŃĲéĤ®ä»¶":3462,"æĸ¼":3463,"å¡ŀ":3464,"ç¯®çĲĥ":3465,"æ¶µ":3466,"ä»İæĸĩç«łä¸ŃæıĲåıĸåĩº":3467,"ç©¿çĿĢ":3468,"è¿Ŀ":3469,"æĪĳä»¬å°Ĩ":3470,"åľ¨äºİ":3471,"çī¹èī²":3472,"æīĺ":3473,"çļĦä¸Ģç§į":3474,"ç§ĭå¤©":3475,"èµ¢":3476,"çļĦæĥ³æ³ķ":3477,"è¢«è®¤ä¸º":3478,"çļĦæ¼":3479,"ĽåĽ´":3480,"çĶŁç´ł":3481,"æľĢå¤§":3482,"ä¿ĿæĬ¤çİ¯å¢ĥ":3483,"éŁ©":3484,"èĥŀ":3485,"è¿Ļé¡¹":3486,"åĵģå°Ŀ":3487,"çļĦæķĻ":3488,"åł¡":3489,"çļĦæīĢæľī":3490,"çļĦçĿ¡":3491,"é£ŁæĿĲ":3492,"çļĦåŁİå¸Ĥ":3493,"å¹³éĿ¢":3494,"çļĦåįķè¯į":3495,"äºĪ":3496,"æķ°åŃ¦é¢ĺ":3497,"éļ¾ä»¥":3498,"éĤ£ä¸ª":3499,"çī©ç§į":3500,"æııè¿°äºĨ":3501,"éģĩåĪ°":3502,"åįł":3503,"é£İæĻ¯":3504,"æĪĲå°±":3505,"æĻ´":3506,"è®°å¿Ĩ":3507,"æĪĲåĪĨ":3508,"åı¯ä»¥è®©":3509,"çļĦæŃĮ":3510,"çļĦç½":3511,"ä¸ĢæĿ¡":3512,"åįĸ":3513,"çĿĽ":3514,"å°º":3515,"è§Ħæ¨¡":3516,"çļĦæĦŁè§ī":3517,"æª":3518,"åĲ«æľī":3519,"æī¹":3520,"çĶŁæĪĲåķĨåĵģæĸĩæ¡Ī":3521,"å½Ĵç±»ä¸º":3522,"è¿Ļé¦ĸ":3523,"æĿ¥æºĲ":3524,"çĪĨ":3525,"å»ºè®®æĤ¨":3526,"éĢĥ":3527,"ä¸Ģé¡¹":3528,"ä»Ķ":3529,"è¿ĺåī©ä¸ĭ":3530,"å°½åı¯èĥ½":3531,"çļĦä½¿çĶ¨":3532,"ä¸»è¯Ń":3533,"çļĦæłĩé¢ĺ":3534,"æĹ©é¤Ĳ":3535,"é£ŀè¡Į":3536,"çĹĩçĬ¶":3537,"è¿Ľè¡ĮäºĨ":3538,"çļĦè¿ĲåĬ¨":3539,"çł´åĿı":3540,"çļĦä¸»è¦ģåĨħå®¹":3541,"ç¬¬ä¸ī":3542,"åĨľä¸ļ":3543,"æ·ĭ":3544,"åŃ¦ä¼ļ":3545,"å½¢è±¡":3546,"çļĦçĿ¡çľł":3547,"åĲī":3548,"æľīæķĪåľ°":3549,"ä¼Ĭ":3550,"çļĦç¤¾ä¼ļ":3551,"çļĦéľĢæ±Ĥ":3552,"ç¬¦åı·":3553,"ä»ĸäºº":3554,"é¦Ī":3555,"çŀ":3556,"èĤº":3557,"æŃĮæĽ²":3558,"Ġ3":3559,"åıĬåħ¶":3560,"æľŁå¾ħ":3561,"åį«çĶŁ":3562,"ä¾¿åĪ©":3563,"æīĢéľĢ":3564,"ç»Ļå®ļçļĦæĸĩæľ¬":3565,"èľĤ":3566,"æĪ´":3567,"èĭ¥":3568,"äºĶä¸ª":3569,"åī¯":3570,"åħħæ»¡äºĨ":3571,"é»Ħèī²":3572,"åģĩè®¾":3573,"åĴĮæĮĳæĪĺ":3574,"åĬ©æīĭ":3575,"æĦŁåħ´è¶£":3576,"å¼±":3577,"é£ŁçĶ¨":3578,"GP":3579,"åĬŀåħ¬":3580,"æĢķ":3581,"æ±¤å§Ĩ":3582,"å¸¸è§ģçļĦ":3583,"ç´¯":3584,"è¿Ľå±ķ":3585,"æĳĺ":3586,"æĪĺäºī":3587,"çļĦç©º":3588,"è§Ħå®ļ":3589,"åºĶè¯¥æĺ¯":3590,"åİŁçĲĨ":3591,"çľĭåĪ°äºĨ":3592,"çļĦæĶ¯":3593,"çĿ£":3594,"Ġå°Ĩ":3595,"çļĦæ·":3596,"åĸľå¥½":3597,"æ¡¥":3598,"ç¾İçļĦ":3599,"æ£Ģæµĭ":3600,"éĿŀå¸¸éĩįè¦ģ":3601,"çĻ¼":3602,"é¡¾å®¢":3603,"æĢ§åĪ«":3604,"æ²Ļæ»©":3605,"æĤ²":3606,"åº¦è¿ĩ":3607,"å°±ä¸ļ":3608,"åĵ¦":3609,"åıĺæĪĲ":3610,"éĩĮæľī":3611,"æģĴ":3612,"çļĦçŁ¥è¯Ĩ":3613,"éĩĮçļĦ":3614,"èĸĦ":3615,"ä¹ĭå¤ĸ":3616,"çļĦæĻºèĥ½":3617,"éĿ¢ç§¯":3618,"åĲ¹":3619,"ä¸ĵæ³¨":3620,"çļĦå®īåħ¨":3621,"è¯Ŀé¢ĺ":3622,"ç¼ºä¹ı":3623,"æĻĤ":3624,"å²¸":3625,"æ¸©å®¤æ°Ķä½ĵ":3626,"åĨħå¿ĥ":3627,"é¢Ħç®Ĺ":3628,"éĽĦ":3629,"ä»°":3630,"ä¸ĢæĿ¯":3631,"åŁĥ":3632,"åı¯éĿł":3633,"åı¯ä»¥æıĲé«ĺ":3634,"æĹ¶åħī":3635,"éĻĦè¿ĳ":3636,"åĲ¬è¯´":3637,"è£ħé¥°":3638,"åĴĮæ²»çĸĹ":3639,"æ¡£":3640,"å·®å¼Ĥ":3641,"é£ĺ":3642,"è§£éĩĬä¸Ģä¸ĭ":3643,"æ¸¯":3644,"è®¡ç®Ĺæľºç§ĳåŃ¦":3645,"çļĦæĮĩ":3646,"æĦīæĤ¦":3647,"èĬ±åĽŃ":3648,"èĩªä¿¡":3649,"çĸ«èĭĹ":3650,"è®¾æĸ½":3651,"å§ĵ":3652,"å®ŀæĸ½":3653,"æıĲéĨĴ":3654,"æĺ¯æĪĳ":3655,"åī§æĥħ":3656,"æµªè´¹":3657,"ç»ĦåĲĪ":3658,"ãĢģâĢľ":3659,"åĮĸåĴĮ":3660,"æīĢåľ¨":3661,"èİ«":3662,"è´¢åĬ¡":3663,"ä¸»è§Ĵ":3664,"çĶµè¯Ŀ":3665,"ä¸Ģéĥ¨":3666,"ä¸ªæľĭåıĭ":3667,"çļĦè¯Ńè¨Ģ":3668,"åĿĩåĮĢ":3669,"åĴĮä¸į":3670,"in":3671,"çĹħäºº":3672,"çļĦåģ¥åº·":3673,"æĺ¯ä¸ĢåĲį":3674,"åľ¨è¿Ļ":3675,"ä¸ŃæĢ§":3676,"éģĩåĪ°äºĨ":3677,"å¤§æķ°æį®":3678,"åĪĨæŀĲåĴĮ":3679,"èİ·å¾ĹäºĨ":3680,"æł¹æį®ç»Ļå®ļçļĦæĸĩæľ¬":3681,"åİ¨":3682,"åıįé¦Ī":3683,"éļĶ":3684,"åĴĮä¸Ģä¸ª":3685,"æıĲåĩºäºĨ":3686,"éħĴåºĹ":3687,"çĽĴ":3688,"ç»Ĩèĥŀ":3689,"æĪĲåĳĺ":3690,"çĪ¬":3691,"åĨįæ¬¡":3692,"ä¸ĢäºĽåħ³äºİ":3693,"å¿§":3694,"çĨĬçĮ«":3695,"æ°ı":3696,"ä»¥ä¸ĭæĺ¯ä¸Ģéģĵ":3697,"åħ¨éĿ¢":3698,"çĪ½":3699,"èĦī":3700,"æĶ¶éĽĨ":3701,"åĵ²åŃ¦":3702,"å¸¸å¸¸":3703,"ç¦ģ":3704,"èįīèİĵ":3705,"èµĸ":3706,"er":3707,"åı¯åĨįçĶŁèĥ½æºĲ":3708,"æµªæ¼«":3709,"èĳ¡èĲ":3710,"èĳ¡èĲĦ":3711,"ä¼Ł":3712,"ä¸įå¤ª":3713,"è§Ĵåº¦":3714,"åŃĹæ¯į":3715,"åħĶ":3716,"çĲĨè§£åĴĮ":3717,"çļĦé¢ľèī²":3718,"çķªèĮĦ":3719,"å¤ªéĺ³èĥ½":3720,"å°ıåŃ¦æķ°åŃ¦é¢ĺ":3721,"å¯¹äººç±»":3722,"æĪĲç»©":3723,"è¯·æıĲä¾Ľ":3724,"ä»¥ä¸ĭæĺ¯ä¸Ģéģĵå°ıåŃ¦æķ°åŃ¦é¢ĺ":3725,"ä¸Ĭè¿°":3726,"æĬ«èĲ¨":3727,"åº¦åģĩ":3728,"ä½łè®¤ä¸º":3729,"éĺ´":3730,"æķ¦":3731,"çı¾":3732,"ç¦»å¼Ģ":3733,"ãĢĭãĢĤ":3734,"çķĻä¸ĭ":3735,"å®¤åĨħ":3736,"çĤ¸":3737,"åĴĮåıĳå±ķ":3738,"æ¶īåıĬåĪ°":3739,"æįķ":3740,"äººåľ¨":3741,"åı¦ä¸Ģä¸ª":3742,"çŃīéĹ®é¢ĺ":3743,"æĻºæħ§":3744,"èĩªä¸»":3745,"éĥ¨éĹ¨":3746,"ç²Ĵ":3747,"çºłéĶĻ":3748,"çļĦæĦıä¹ī":3749,"ä¼łè¾¾":3750,"ç»´çĶŁç´ł":3751,"åħįçĸ«":3752,"èĤ¯å®ļ":3753,"çĶ·åŃ©":3754,"¹é¥":3755,"åĪĻæĺ¯":3756,"å¤§å°ı":3757,"å½¢çĬ¶":3758,"æĽ¾ç»ı":3759,"çī©çĲĨåŃ¦":3760,"å°Ĩå®ĥä»¬":3761,"æĲħ":3762,"éģŃ":3763,"èı²":3764,"¹é¥ª":3765,"è¯¢éĹ®":3766,"åĶ¯":3767,"æĤł":3768,"ä¹ĭå¤Ħ":3769,"çļĦæł¸":3770,"æĸ°åŀĭ":3771,"æĮĩå®ļ":3772,"åĲĪéĢĤçļĦ":3773,"æ¬§æ´²":3774,"èĮĥåĽ´åĨħ":3775,"æī°":3776,"çļĦç»ĵæŀľ":3777,"æ¸¸å®¢":3778,"ç´§å¼ł":3779,"ä¼¼ä¹İ":3780,"om":3781,"çļĩ":3782,"èĢĥè¯ķ":3783,"èıľåĵģ":3784,"åĪºæ¿Ģ":3785,"æŀģç«¯":3786,"ä¹±":3787,"çº·":3788,"ä¸ºæĤ¨æıĲä¾Ľ":3789,"è®¾ç½®":3790,"æĸ¹éĿ¢çļĦ":3791,"è·¨":3792,"åĭķ":3793,"çļĦç²¾":3794,"å¿ł":3795,"çļĦæ²»":3796,"å°±åı¯ä»¥":3797,"æī¬":3798,"25":3799,"åĨħéĥ¨":3800,"è·¯ä¸Ĭ":3801,"ç»¼åĲĪ":3802,"æĺ¥å¤©":3803,"ç´«":3804,"11":3805,"å°ıæĺİæīĭ":3806,"åĩºå¤Ħ":3807,"ä¸ŃçļĦåºĶçĶ¨":3808,"çļĦç³ĸæŀľ":3809,"çļĦæ¶":3810,"è¿Ķ":3811,"âĢĿãĢģâĢľ":3812,"åıĤè§Ĥ":3813,"ä¹Ķ":3814,"å¹´è½»çļĦ":3815,"æľīä¸Ģ":3816,"åħĪçĶŁ":3817,"æľīä¸ĢäºĽ":3818,"å¢Ļ":3819,"è¿ħéĢŁ":3820,"éĿŀå¸¸æĦŁè°¢":3821,"å°Ĩåľ¨":3822,"è¿Ļä¸¤ä¸ª":3823,"è´´":3824,"èĥ¡":3825,"çļĦæıĲ":3826,"åĪĨåŃĲ":3827,"è¿Ļå®¶é¤Ĳåİħ":3828,"ä¸ĭéĻį":3829,"èĬĤçº¦":3830,"å¯¹æĸ¹":3831,"çģŃ":3832,"æĻ¨":3833,"çļĦä¸Ģæ®µ":3834,"åħ´å¥ĭ":3835,"çļĦæ¼Ķ":3836,"æľīçĤ¹":3837,"çļĦæŀ":3838,"éĺ²æŃ¢":3839,"èĤ´":3840,"GPT":3841,"çĶµæ±ł":3842,"æĺ¯éĿŀå¸¸":3843,"è½¦è¾Ĩ":3844,"å·¨å¤§çļĦ":3845,"åħ·å¤ĩ":3846,"é¡ºåºı":3847,"åĬłä¸Ĭ":3848,"èĩªçĦ¶çģ¾å®³":3849,"è¦Ĩ":3850,"è¢ĸ":3851,"åĮ»éĻ¢":3852,"äº§çĶŁäºĨ":3853,"æĲħæĭĮ":3854,"è¯¥æĸĩæľ¬":3855,"åĵĪåĪ©":3856,"æ¬²":3857,"ç¾Ĭ":3858,"çŃīå¾ħ":3859,"è¯Ńæ°Ķ":3860,"å¤§çº¦":3861,"ä¸¾è¡Į":3862,"éĩįè§Ĩ":3863,"å±ħæ°ĳ":3864,"å¾Īæľī":3865,"å¼Ģå¤´":3866,"ä¼ĺè´¨":3867,"æĥ³æ³ķ":3868,"çļĦå°ıè¯´":3869,"æµ·å¹³éĿ¢":3870,"ä¸»è¦ģè§ĤçĤ¹":3871,"çĶŁæĪĲä¸Ģç¯ĩ":3872,"è®¤çŁ¥":3873,"èİī":3874,"æľīçļĦ":3875,"æīĵå¼Ģ":3876,"èĬ³":3877,"åį³ä½¿":3878,"åħħè¶³":3879,"èĤĮèĤī":3880,"èĴ¸":3881,"æĸĩç«łä¸ŃçļĦ":3882,"åħµ":3883,"çļĦæĬĢèĥ½":3884,"ä¾µ":3885,"éĢĤå½ĵçļĦ":3886,"æĪĲè¯Ńåĩºå¤Ħ":3887,"æī®":3888,"æĿ¥è§£åĨ³":3889,"å°ıæĿİ":3890,"æĹ¶åĪ»":3891,"æ½ľåľ¨":3892,"çļĦä¸Ģéĥ¨åĪĨ":3893,"åįģå¹´":3894,"çĮİ":3895,"ç»Łè®¡":3896,"è²Į":3897,"ä¸Ģåľº":3898,"æĮĩå¯¼":3899,"é»ĳèī²":3900,"å¿½":3901,"é¤Ĳé¦Ĩ":3902,"åŃĲéĩĮ":3903,"åį°è±¡":3904,"è¯·æıĲåıĸ":3905,"Jo":3906,"è¢«å¹¿æ³Ľ":3907,"åĩĨç¡®åľ°":3908,"hon":3909,"äººåı£":3910,"å½¼æŃ¤":3911,"å½±åĥı":3912,"åħĭæľį":3913,"åĪĨå¸ĥ":3914,"çİ¯å¢ĥæ±¡æŁĵ":3915,"çľŁå®ŀ":3916,"éĽĨä¸Ń":3917,"ä½¿çĶ¨äºĨ":3918,"è´¦":3919,"å¿ĥèĦı":3920,"çłĶåıĳ":3921,"an":3922,"çļĦæİªæĸ½":3923,"èĩªèº«":3924,"å¤ľæĻļ":3925,"æĪĳè§īå¾Ĺ":3926,"æİĴåºı":3927,"çļĦè®¾è®¡":3928,"å¤ļæķ°":3929,"çĶµå½±çļĦ":3930,"è¾ħåĬ©":3931,"ä¿¡ä»»":3932,"åĸ»":3933,"æİĪ":3934,"çļĦåŁºç¡Ģ":3935,"åĨ¬åŃ£":3936,"16":3937,"èĢĮæĺ¯":3938,"ãĢĭï¼Į":3939,"äºĨå¾Īå¤ļ":3940,"ç¨İ":3941,"åħ¬éĩĮ":3942,"åŁ¹åħ»":3943,"æĴ°":3944,"æľĢå¤§çļĦ":3945,"è¶ħå¸Ĥ":3946,"æĪĳæĺ¯":3947,"çº¤":3948,"ç¬¬ä¸Ģä¸ª":3949,"å¿ĥçĲĨåģ¥åº·":3950,"æľĢé«ĺ":3951,"ç®Ģæ´ģæĺİäºĨ":3952,"èĮ¨":3953,"çĲ´":3954,"æĬ½åıĸåĩº":3955,"æĽ´å¿«":3956,"åı¤èĢģ":3957,"å®£å¸ĥ":3958,"çļĦä»»åĬ¡":3959,"é¡µ":3960,"ä½ľä¸ºä¸Ģä¸ª":3961,"æĶ»åĩ»":3962,"äººä»¬çļĦ":3963,"ç¢İ":3964,"å¤§èĦĳ":3965,"ä¸¤ç§į":3966,"æĸĩæĺİ":3967,"çĽ¾":3968,"çļĦæ²»çĸĹ":3969,"åĴª":3970,"çļĦæł¸å¿ĥ":3971,"äººä½ĵ":3972,"å¯Ĩçłģ":3973,"ç£¨":3974,"æĤ¬":3975,"éĢ²":3976,"çļĦæľįåĬ¡":3977,"åĬ¨åĬĽ":3978,"è®¡ç®Ĺæľºè§Ĩè§ī":3979,"éĺ»":3980,"èį·":3981,"æĪĳæ²¡æľī":3982,"çļĦæ¦Ĥå¿µ":3983,"åĽ¾ä¹¦":3984,"è¿ĳå¹´æĿ¥":3985,"æĢ»çļĦ":3986,"æŀĦå»º":3987,"è§Ĩä¸º":3988,"å¹¶ä¸º":3989,"èĢį":3990,"åŃĲåĴĮ":3991,"èĤ¡ç¥¨":3992,"åħ¬æŃ£":3993,"å¾Īå¤§":3994,"çİ©å®¶":3995,"çļĦæ¢":3996,"çĶĺ":3997,"ä½ľå®¶":3998,"éĩįå¤§":3999,"æĪĸåħ¶ä»ĸ":4000,"éķ¿æĹ¶éĹ´":4001,"éĺµ":4002,"èĩ³åħ³":4003,"å¾ªçİ¯":4004,"åĩ½":4005,"æıĲç¤º":4006,"åıªèĥ½":4007,"åħ¬åĽŃéĩĮ":4008,"åı¯ä»¥å°Ĩ":4009,"æ²¿":4010,"åŃĺåĤ¨":4011,"ħåĬĽ":4012,"åĲįä¸º":4013,"è¿Ľè¡Įæĳĺè¦ģ":4014,"æĺİçĻ½":4015,"äº§åĵģçļĦ":4016,"é¢ĨåŁŁçļĦ":4017,"æĽ´å®¹æĺĵ":4018,"æĿİæĺİ":4019,"æ¢ħ":4020,"çļĦç½ĳ":4021,"æĽ¼":4022,"ä¸Ģåħ±æľī":4023,"çļĦæ¬":4024,"åĴĮå®īåħ¨":4025,"ç»ĵæĿŁ":4026,"ä½łè§īå¾Ĺ":4027,"è£Ļ":4028,"hn":4029,"éł":4030,"ä¸ĭéĽ¨":4031,"çļĦç¾İé£Ł":4032,"çĳŀ":4033,"èıĮ":4034,"å°½éĩı":4035,"æ¯ķ":4036,"çļĦåĬ¨çī©":4037,"èº«ä»½":4038,"æİĺ":4039,"åĨ³äºİ":4040,"çŁ¿":4041,"åıĸåĨ³äºİ":4042,"æł¹æį®ç»Ļå®ļ":4043,"çļĦåŁºæľ¬":4044,"è§Ĵèī²ä¿¡æģ¯":4045,"æĪĳä»¬çļĦçĶŁæ´»":4046,"çģ°":4047,"ä¿Ŀéļľ":4048,"æĭĵ":4049,"ä»·åĢ¼è§Ĥ":4050,"åıĳæĺİ":4051,"è±ª":4052,"çļĦçĶŁæ´»æĸ¹å¼ı":4053,"æ¼Ĥäº®":4054,"ç»ıçĲĨ":4055,"ä¸ºä½ł":4056,"åĽŀçŃĶè¿Ļä¸ªéĹ®é¢ĺ":4057,"åĴĮåºĶçĶ¨":4058,"000":4059,"çļĦäº§åĵģ":4060,"åĲĦåľ°":4061,"åĲĽ":4062,"è½¬åĮĸ":4063,"åķĨåĬ¡":4064,"å°ıçĮ«":4065,"æĢ»çļĦæĿ¥è¯´":4066,"èµ¢å¾Ĺ":4067,"è¯¸":4068,"èģĺ":4069,"çļĦæ½":4070,"çĬ¯ç½ª":4071,"è¯ģæį®":4072,"Ã·":4073,"çº¹":4074,"ä¼¯":4075,"æĳĨ":4076,"ç»´æĮģ":4077,"æĢİæł·":4078,"John":4079,"è¯ķåĽ¾":4080,"é²ģ":4081,"ç¼ºçĤ¹":4082,"æĥ³è±¡":4083,"æŁ¥è¯¢":4084,"åı¯ä»¥éĢīæĭ©":4085,"æĿİåĽĽ":4086,"ä¹ŁéľĢè¦ģ":4087,"Ġå¥½çļĦ":4088,"çļĦçľĭ":4089,"ä¸Ģä»¶":4090,"åĭĩæ°Ķ":4091,"å¤§éĩıçļĦ":4092,"çļĦåĲ«ä¹ī":4093,"èĻİ":4094,"ä»¥æĿ¥":4095,"ä»Ĭå¹´":4096,"æĻĴ":4097,"ä»İè¿Ļç¯ĩæĸĩç«łä¸ŃæıĲåıĸåĩº":4098,"æŁĶè½¯":4099,"æľīæķĪçļĦ":4100,"ä¼¦æķ¦":4101,"åŃĹç¬¦":4102,"æľªçŁ¥":4103,"å§Ķ":4104,"çĽĳæµĭ":4105,"è®¸å¤ļäºº":4106,"AIæĬĢæľ¯":4107,"åı¯ä»¥æł¹æį®":4108,"èİ±":4109,"åĴĮæľįåĬ¡":4110,"åľĪ":4111,"å¿ĥåĴĮ":4112,"åĪļåĪļ":4113,"ä»ª":4114,"ä½Ĩä»ĸ":4115,"éĢĬ":4116,"æĺ¯åħ³äºİ":4117,"ä¸ªæĢ§åĮĸ":4118,"ä¸İåħ¶ä»ĸ":4119,"æĺ¯æľĢ":4120,"åį§":4121,"åīª":4122,"é¸£":4123,"çłĶç©¶è¡¨æĺİ":4124,"æĥħæĦŁåĪĨæŀĲ":4125,"å¹½":4126,"çļĦåıĺåĮĸ":4127,"çİ©èĢį":4128,"åıĤèĢĥ":4129,"å¥½å¤Ħ":4130,"çļĦçĸ":4131,"ä¸ĵå®¶":4132,"èĢħçļĦ":4133,"èĢĮè¨Ģ":4134,"å°ıåįİ":4135,"ç¡®å®ŀ":4136,"è¿Ļç¯ĩæĸĩç«łä¸Ń":4137,"çĽĳçĿ£":4138,"çļ®èĤ¤":4139,"ä¼Ļ":4140,"ä¸įè¶³":4141,"çļĦæĥħåĨµä¸ĭ":4142,"ç¢į":4143,"éĻ·":4144,"æ°¸è¿ľ":4145,"å°±ä¼ļ":4146,"èĬĿ":4147,"çºłæŃ£":4148,"éĤĢ":4149,"è´Łè´£":4150,"å§¿":4151,"æĢª":4152,"çļĦåħ·ä½ĵ":4153,"çļĦæĶ¯æĮģ":4154,"æģĭ":4155,"éĩĮéĿ¢":4156,"éĩĩåıĸæİªæĸ½":4157,"æľīçĽĬ":4158,"åĲĮåŃ¦":4159,"åĴĮè°":4160,"æŀĿ":4161,"èħĲ":4162,"è¯ģæĺİ":4163,"åį°åº¦":4164,"å¤§åŀĭ":4165,"åĩ¡":4166,"åĩºè¡Į":4167,"è¯Ńåı¥":4168,"è°ĥåĳ³":4169,"æ¥ļ":4170,"çļĦè¿ĩç¨ĭ":4171,"å¹´è½»äºº":4172,"çļĦæĢģ":4173,"çİ©åħ·":4174,"è®¿éĹ®":4175,"ç®Ģçº¦":4176,"çļĦé£İæł¼":4177,"è°Ĭ":4178,"åĽłä¸ºå®ĥä»¬":4179,"äºĭæķħ":4180,"æŃ»äº¡":4181,"ä»¥ä¸ĭæ®µèĲ½":4182,"åı¯èĥ½å¯¼èĩ´":4183,"æĪĳæĥ³çŁ¥éģĵ":4184,"å®ŀçĶ¨":4185,"åĸľçĪ±":4186,"æª¬":4187,"æĽ´ä¸º":4188,"å±±å³°":4189,"æīĭæ®µ":4190,"äº§ä¸ļ":4191,"è§Ĥçľĭ":4192,"çļĦæĥħç»ª":4193,"åıĸå¾ĹäºĨ":4194,"ce":4195,"éĺĶ":4196,"è¡«":4197,"æĭĶ":4198,"è¿ĻæĦıåĳ³çĿĢ":4199,"æµģç¨ĭ":4200,"Ġ1":4201,"å°ıæĺİåĴĮ":4202,"ĽçĽ¾":4203,"æĳĩ":4204,"łæª¬":4205,"å±ı":4206,"æŁ¥çľĭ":4207,"çļĦæĹħæ¸¸":4208,"çļĦçĬ":4209,"å²©":4210,"è¿ĲçĶ¨":4211,"è¶³å¤ŁçļĦ":4212,"ä¸Ģæ®µæĸĩæľ¬":4213,"äººå£«":4214,"èĴľ":4215,"æ£ī":4216,"åľ°ä¸Ĭ":4217,"le":4218,"çĶ·åŃĲ":4219,"ä¿Ĺ":4220,"åŀĥåľ¾åĪĨç±»":4221,"è¢«ç§°ä¸º":4222,"æĦŁåĪ°éĿŀå¸¸":4223,"èĴĤ":4224,"èıľèĤ´":4225,"æŃ£å¼ı":4226,"åŁ¹è®Ń":4227,"å¤ļæł·æĢ§":4228,"æĪĳä¸į":4229,"æł¹æį®ä»¥ä¸ĭæĸĩæľ¬":4230,"åĭĩæķ¢":4231,"ç¼ĸåĨĻä¸Ģä¸ª":4232,"ç©Ĩ":4233,"åĢĴåħ¥":4234,"å¹´ä»£":4235,"åİĺ":4236,"éķ¿çļĦ":4237,"çĽ¸åıį":4238,"è¿Ļæ¬¡":4239,"å½±çīĩ":4240,"ä¸ģ":4241,"åħ³éĶ®åŃĹ":4242,"çļĦçĭĹ":4243,"âĢĿãĢĤ<|":4244,"æī®æ¼Ķ":4245,"ä¸»äººåħ¬":4246,"çļĦçľĭæ³ķ":4247,"æĬĢæľ¯åĴĮ":4248,"æ²Ļæĭī":4249,"åĪ©çĽĬ":4250,"åľºæīĢ":4251,"çĥ¹é¥ª":4252,"è£ģ":4253,"æĳ©":4254,"æĶ¶åħ¥":4255,"çĽŁ":4256,"çļĦæĬķ":4257,"å±ķå¼Ģ":4258,"ç§Ł":4259,"çļĦæ¸¸æĪı":4260,"\"<|":4261,"äº¤äºĴ":4262,"17":4263,"åĪĺ":4264,"æŃ£å¸¸":4265,"çģµæ´»":4266,"å¼ķåıĳ":4267,"æĪĲåĬŁçļĦ":4268,"ä¾Ŀèµĸ":4269,"ä¹Łä¸į":4270,"æłĩçŃ¾":4271,"æģ¢":4272,"ä¸Ńæľī":4273,"åĮ¹":4274,"å®ŀæĹ¶":4275,"æ¸ħæĸ°":4276,"ä¸Ģå¹´":4277,"çļĦæģ":4278,"å½ĵæĹ¶":4279,"éĩİçĶŁ":4280,"çļĦä¸ĢäºĽ":4281,"æĪĲæŀľ":4282,"èĢģæĿ¿":4283,"èģĮä½į":4284,"åĿĢ":4285,"æŁ¥æī¾":4286,"æĻºèĥ½æīĭæľº":4287,"å¤®":4288,"å¿ħè¦ģçļĦ":4289,"èŃ¦å¯Ł":4290,"åĴĮæ°´":4291,"æµ·å¹³éĿ¢ä¸Ĭåįĩ":4292,"æĺ¾èĳĹ":4293,"åľ¨ä¸ŃåĽ½":4294,"æİ¢éĻ©":4295,"çļĦçĽ®æłĩ":4296,"è¿«":4297,"å°¿":4298,"æ³¢çī¹":4299,"éĺ¶æ®µ":4300,"æĭħå¿ĥ":4301,"çļĦæ¢¦":4302,"äºĮæ°§åĮĸ":4303,"çļĦçī¹çĤ¹":4304,"ä»Ļ":4305,"çĸĳéĹ®":4306,"è·ĥ":4307,"çļĦæ³ķ":4308,"åİŁæĸĩ":4309,"åºĨç¥Ŀ":4310,"ä¸ªæ©ĻåŃĲ":4311,"ç«¹":4312,"è®¤çľŁ":4313,"å¢¨":4314,"ä¸įè¶ħè¿ĩ":4315,"çĭ®":4316,"åı¯ä»¥çĶ¨":4317,"ä»İè¿Ļç¯ĩæĸĩç«łä¸ŃæıĲåıĸ":4318,"æĺĵæĩĤ":4319,"æĹłéĻĲ":4320,"åĲĮæł·":4321,"æ·±è¿ľ":4322,"å·¥èīº":4323,"æ³ķè§Ħ":4324,"å¿ĥæĢģ":4325,"çļĦä¸ĸçķĮ":4326,"ä¹°äºĨ":4327,"çļĦçľŁ":4328,"åħ¶ä¸ŃåĮħæĭ¬":4329,"è°ĵè¯Ń":4330,"é¸¡èĤī":4331,"ä½ĵéĩį":4332,"å¯¼æ¼Ķ":4333,"è¦ģçĤ¹":4334,"åŁİå¸ĤçļĦ":4335,"èİİ":4336,"åŃ¦ç§ĳ":4337,"æĬĳ":4338,"å¤§å¤ļæķ°":4339,"æ¶µçĽĸ":4340,"å·¥ç¨ĭå¸Ī":4341,"èĬĤæĹ¥":4342,"åĢ¼å¾Ĺä¸Ģ":4343,"åı¯ä»¥èĢĥèĻĳ":4344,"è¢«è®¤ä¸ºæĺ¯":4345,"æī¾åĪ°äºĨ":4346,"éĩĬæĶ¾":4347,"æľĢéĩįè¦ģ":4348,"é²¸":4349,"ä¼¦çĲĨ":4350,"çļĦçĮ":4351,"éĥ½åľ¨":4352,"å¦Ĥæŀľä½łåĸľæ¬¢":4353,"åĲĥäºĨ":4354,"åĲĪçī©":4355,"éĹ®é¢ĺçļĦ":4356,"çŁ¥åĲį":4357,"åĴĮæĶ¯æĮģ":4358,"å¼Ģå¿ĥ":4359,"ä¸įæĸŃåľ°":4360,"ä¸Ģç³»åĪĹ":4361,"ç¡®è®¤":4362,"åģļå¥½":4363,"å¦Ĥä½ķåľ¨":4364,"æĺ¯åĲ¦æľī":4365,"æıŃ":4366,"çº¤ç»´":4367,"éľľ":4368,"åıĭè°Ĭ":4369,"çļĦæĽ":4370,"é¸Ń":4371,"æĭľ":4372,"æĥľ":4373,"çļĦæ¨":4374,"çĩķ":4375,"æĦŁæŁĵ":4376,"è´§å¸ģ":4377,"å°Ĩä»¥ä¸ĭæĸĩæľ¬":4378,"å°Ĩä»¥ä¸ĭåı¥åŃĲ":4379,"åĽ¾åĥıè¯ĨåĪ«":4380,"å¼Ł":4381,"å¾Ĵ":4382,"åľ¨è¿ĩåİ»":4383,"å°Ĭæķ¬":4384,"çĭĹçĭĹ":4385,"éģµå®Ī":4386,"çļĦæ¶Ī":4387,"é£Łè°±":4388,"å¦ĩ":4389,"æŁłæª¬":4390,"æķĪçİĩåĴĮ":4391,"çļĦä¸»æĹ¨":4392,"åĩ½æķ°":4393,"å¥½çľĭ":4394,"èĤł":4395,"äººç±»æ´»åĬ¨":4396,"è¶ĬæĿ¥è¶Ĭå¤ļ":4397,"æŃĮè¯į":4398,"çĽĳç®¡":4399,"æĽ¿ä»£":4400,"æİ¨æĸŃ":4401,"æĦıè¯ĨåĪ°":4402,"æ®ĸ":4403,"æĲº":4404,"60":4405,"ä¼ļå¯¼èĩ´":4406,"2021":4407,"èĤĸ":4408,"çļĦç¥ŀ":4409,"åľ¨å®¶éĩĮ":4410,"è½»è½»":4411,"æµ·è¾¹":4412,"æĦ¿æĦı":4413,"ç»ĻäºĨ":4414,"æĪĳä¹Ł":4415,"çļĦæŃ£":4416,"æĻ®éĢļ":4417,"éĨī":4418,"ä¹ĭéĹ´çļĦåħ³ç³»":4419,"å·²ç»ıæĪĲä¸º":4420,"æĶ¯éĵħç¬Ķ":4421,"åĽŀå¿Ĩ":4422,"ä½łåľ¨":4423,"è¯¥åħ¬åı¸":4424,"åĸľæ¬¢åĲĥ":4425,"éĥ½åı¯ä»¥":4426,"åĪł":4427,"çļĦæĳĦ":4428,"çļĦæ·±":4429,"éĻ¤ä»¥":4430,"èıľåįķ":4431,"æĹłäºº":4432,"æĿ¥å®ŀçİ°":4433,"è¿Ł":4434,"éĻª":4435,"çļĦæ½ľ":4436,"40":4437,"è·¯çº¿":4438,"æ´ª":4439,"éģİ":4440,"æııç»ĺ":4441,"æĽ´æľī":4442,"èģļä¼ļ":4443,"æĪĲä¸Ģä¸ª":4444,"äºĴçĽ¸":4445,"ä¸ĢåĢĭ":4446,"é¸Łç±»":4447,"çļĦçĪ±æĥħ":4448,"æİĴåĪĹ":4449,"èĴĻ":4450,"åľ°çĲĥçļĦ":4451,"æĮĤ":4452,"ç¤¼çī©":4453,"å°ıé¸Ł":4454,"æĤī":4455,"éģĵè·¯":4456,"åĴĮè°Ĳ":4457,"äºĮæ°§åĮĸç¢³":4458,"çļĦæİĴ":4459,"æ¡ĥ":4460,"æĽ´æĸ°":4461,"ä¿ĿéĻ©":4462,"æľºåĪ¶":4463,"è´¸":4464,"åĢį":4465,"åĪĹä¸¾":4466,"åĭĴ":4467,"ä½łä¼ļ":4468,"å¯¹åħ¶":4469,"ä»ĸæĥ³":4470,"ä»ĭç»įä¸Ģä¸ĭ":4471,"èĭ±æĸĩ":4472,"çĻ½èī²":4473,"äºĭä¸ļ":4474,"çļĦä¸į":4475,"åį«æĺŁ":4476,"å®ĹæķĻ":4477,"èĬĴ":4478,"è¯»ä¹¦":4479,"åķĨåºĹ":4480,"ä¿ĿæĮģåģ¥åº·":4481,"ä¸ľäº¬":4482,"è¯·çĶ¨":4483,"ä»¿ä½Ľ":4484,"èĥ½åĬĽåĴĮ":4485,"æł¹æį®è¾ĵåħ¥":4486,"æģ¢å¤į":4487,"åĪĢ":4488,"çİĩåĴĮ":4489,"çº½çº¦å¸Ĥ":4490,"ä¸Ģå¼ł":4491,"æ·ĩ":4492,"ä¸ĢçĽ´åľ¨":4493,"\"ï¼Į":4494,"è®©äººä»¬":4495,"èĻļæĭŁçİ°å®ŀ":4496,"çļĦæŁ":4497,"éĿ¢æĸĻ":4498,"çļĦé«ĺ":4499,"çļĦæŃ¥":4500,"çļĦå¤ĸ":4501,"åĽ¾ä¹¦é¦Ĩ":4502,"å°½åĬĽ":4503,"åĲĮäºĭ":4504,"çŃĶæ¡Īæĺ¯":4505,"èĥ¸":4506,"ä¼¤å®³":4507,"é¢ĨåŁŁä¸Ń":4508,"è¿Ĳè¡Į":4509,"ç§įæ¤į":4510,"æĻ®éģį":4511,"å°ıæľĭåıĭ":4512,"å¦Īå¦Ī":4513,"æłĩå¿Ĺ":4514,"æĬĵ":4515,"éªĮè¯ģ":4516,"è¯´è¯Ŀ":4517,"çĭĤ":4518,"åĵªç§į":4519,"ä»İä»¥ä¸ĭ":4520,"èĢĢ":4521,"åıĭå¥½":4522,"å£¤":4523,"æľºåĻ¨åŃ¦ä¹łç®Ĺæ³ķ":4524,"ä»ĸä»¬åľ¨":4525,"å¾Īå¥½çļĦ":4526,"çļĦåħ³ç³»":4527,"æĪĳéĿŀå¸¸":4528,"çĬ¹":4529,"æĺ¯å¤ļå°ĳ":4530,"åħīçº¿":4531,"åĨ°æ·ĩ":4532,"åĪ«äºº":4533,"éĺĲ":4534,"åĬĽåŃ¦":4535,"å°ıæĺİå®¶":4536,"äººå·¥æĻºèĥ½çļĦåıĳå±ķ":4537,"çĶ·æĢ§":4538,"æĻºèĥ½åĮĸ":4539,"åľ°éľĩ":4540,"åĪĽä¸ļ":4541,"å°±åĥı":4542,"ä¸¦":4543,"åĨ°æ·ĩæ·ĭ":4544,"ä¼ĺæĥł":4545,"æ¯ĶèµĽä¸Ń":4546,"ç¾¤ä½ĵ":4547,"Tom":4548,"æĺ¯ä¸į":4549,"åıªè¦ģ":4550,"æĸ°éĹ»æĸĩç«ł":4551,"çļĦæľºä¼ļ":4552,"èĥľåĪ©":4553,"åħļ":4554,"æħ¢æħ¢":4555,"ä¾ĽåºĶ":4556,"ä¸²":4557,"ä½¿çĶ¨çļĦ":4558,"åħ¬ä¼Ĺ":4559,"çĥŃæĥħ":4560,"çĶŁæĪĲæĳĺè¦ģ":4561,"æ¦Ĥè¿°":4562,"æĽ´é«ĺ":4563,"å¼ķåĬĽ":4564,"åĬłéĢŁ":4565,"ä¸§":4566,"æ¢¦æĥ³":4567,"åįľ":4568,"æĺ¯åĽłä¸º":4569,"åĴĮæľĭåıĭ":4570,"åĪĩæĪĲ":4571,"ï¼ļ\"":4572,"å®¿":4573,"æĮĩçļĦæĺ¯":4574,"åĪ·":4575,"å®Įç¾İ":4576,"å°ĺ":4577,"æĺ¯å¦Ĥä½ķ":4578,"æ³Ĭ":4579,"å¼Ĺ":4580,"è°ĥèĬĤ":4581,"é£ŀæľº":4582,"è®²è¿°äºĨä¸Ģä¸ª":4583,"çļĦæ¯ı":4584,"åĭ¤":4585,"å«Į":4586,"æľĢåĸľæ¬¢çļĦ":4587,"åľ¨è¿ĻéĩĮ":4588,"è¿Ļåıª":4589,"åħ¶å®ŀ":4590,"çļĦçĻ":4591,"æĿĥåĪ©":4592,"ä¸Ĭæĸĩ":4593,"ç¨®":4594,"çĽĹ":4595,"çŁĽçĽ¾":4596,"è¯ķè¯ķ":4597,"çļĦè¯ĹæŃĮ":4598,"ä¾§":4599,"èº«ä½ĵåĴĮ":4600,"ä¿¡ä»°":4601,"çĽ®çļĦæĺ¯":4602,"çļĦæ£":4603,"è¿Ļæĺ¯ä¸Ģç¯ĩ":4604,"24":4605,"æī©å¤§":4606,"çļĦç¼ĸ":4607,"å¯¸":4608,"ç®Ģä»ĭ":4609,"ãĢĤ'":4610,"æĿİåįİ":4611,"åĴĮå·¥ä½ľ":4612,"åĬĽäºİ":4613,"æı´":4614,"å¹¶å°Ĩåħ¶":4615,"å§ĵåĲį":4616,"æ¶Ĥ":4617,"å°ĳå¹´":4618,"è¿Ļå°Ĩ":4619,"ä¸Ģçīĩ":4620,"å¹¶å°Ĩ":4621,"å¦Ĥæŀľä½łæĥ³":4622,"ä¸įæĸŃåıĳå±ķ":4623,"å¹¿æ³ĽåºĶçĶ¨":4624,"éĩĩåıĸè¡ĮåĬ¨":4625,"è¿Ļæł·çļĦ":4626,"çļĦçľ¼":4627,"14":4628,"çļĦä½įç½®":4629,"å®¶åħ·":4630,"è¯ĨåĪ«åĩº":4631,"çļĦè´¨éĩı":4632,"ä½łå¯¹":4633,"æĦıå¤§åĪ©éĿ¢":4634,"é¬":4635,"æ®ĭ":4636,"è½¨":4637,"æĵİ":4638,"å¤©çĦ¶":4639,"ä¸įéľĢè¦ģ":4640,"å¥Ķ":4641,"åĲįè¯įçŁŃè¯Ń":4642,"æīĭæľ¯":4643,"æľĢæĸ°çļĦ":4644,"äº¤éĢļå·¥åħ·":4645,"çĤ¹ç¬¦åı·":4646,"æĹģ":4647,"å¯Įæľī":4648,"è¿Ļæ®µæĸĩåŃĹ":4649,"åĴĮå¹³":4650,"å¹¶ä¸įæĺ¯":4651,"åıĸä»£":4652,"çīĽèĤī":4653,"æĥħæĦŁåĪĨç±»":4654,"ãĢĮ":4655,"ä»¥ä¸ĭéĹ®é¢ĺ":4656,"ä¿®æŃ£":4657,"å®Ŀå®Ŀ":4658,"åİŁåĪĻ":4659,"æī£":4660,"æĶ¾å¼ĥ":4661,"æ·±åĳ¼åĲ¸":4662,"æĺ¯æĪĳä»¬":4663,"è´«":4664,"å¯¹è±¡":4665,"é»ĳæļĹ":4666,"è§ĦèĮĥ":4667,"æ¯«":4668,"è¿ĺèĥ½":4669,"NA":4670,"ãĢį":4671,"å°½å¿«":4672,"å¹¶ç»Ļåĩº":4673,"æĶ¹ä¸º":4674,"li":4675,"è½¬æį¢ä¸º":4676,"èĺ":4677,"ä½łæľīä»Ģä¹Ī":4678,"æıĲä¾ĽçļĦ":4679,"å¯¿åĳ½":4680,"åı£è¯Ń":4681,"åħĶåŃĲ":4682,"æĢİä¹Īæł·":4683,"æĪĳå°Ĩ":4684,"åıĳåĩº":4685,"åºĦ":4686,"åĩĨç¡®æĢ§":4687,"çļĦæ°´æŀľ":4688,"æĽ´å¥½åľ°çĲĨè§£":4689,"å¯Ĥ":4690,"ä¹Į":4691,"ä¹Łå°±æĺ¯":4692,"æĺ¯ä¸ª":4693,"éħª":4694,"æ¶ĪèĢĹ":4695,"æĤ¨å¥½":4696,"Ġ5":4697,"æİ¥çĿĢ":4698,"ä¸ĢåĪĩ":4699,"çĥ¦":4700,"æĹ¥å¸¸çĶŁæ´»":4701,"åľºåĲĪ":4702,"æĿ¥æıĲé«ĺ":4703,"åģıå¥½":4704,"åľ¨æŃ¤":4705,"ç¥ŀç§ĺçļĦ":4706,"å½ĵä»Ĭ":4707,"ä¸¥æł¼":4708,"å¼ķæĵİ":4709,"æ¸ħåįķ":4710,"ç¬¬äºĮä¸ª":4711,"ç±»åŀĭçļĦ":4712,"åĽ½åĨħ":4713,"ä¸īç§į":4714,"åĮºåĪ«":4715,"ï¼ļ'":4716,"æł¹æį®æīĢ":4717,"å¼ºå¤§":4718,"ç½ļ":4719,"è¯·å¯¹":4720,"çĮª":4721,"æĿ¥çľĭ":4722,"æııè¿°ä¸Ģä¸ĭ":4723,"èĬĤå¥ı":4724,"çīĪæľ¬":4725,"æİ¨èįĲä¸ĢäºĽ":4726,"ä¼¸":4727,"åİĤ":4728,"çŃīæĸ¹å¼ı":4729,"åİĭåĬĽåĴĮ":4730,"è´¹çĶ¨":4731,"çĩĥæĸĻ":4732,"æıĴ":4733,"åĴĮåĪĨæŀĲ":4734,"æµ¸":4735,"æĪ·å¤ĸæ´»åĬ¨":4736,"ä¼łéĢĴ":4737,"å°¼åħĭ":4738,"æĦŁåĴĮ":4739,"åĲ¬åĪ°":4740,"å¯¹æīĭ":4741,"è¿Ļä½į":4742,"èį¡":4743,"çļĦæĢģåº¦":4744,"åĲİçļĦ":4745,"æĬµ":4746,"çĶµåĬ¨":4747,"èĬ±è´¹":4748,"æĢģåº¦":4749,"åıĺéĿ©":4750,"å°¤åħ¶æĺ¯":4751,"è¦ģæ³¨æĦı":4752,"åŃĶ":4753,"å£ģ":4754,"å¹¿æ³ĽçļĦåºĶçĶ¨":4755,"èĬ¬":4756,"å¤±åİ»":4757,"æ¨¡ä»¿":4758,"è¯ĦåĪĨ":4759,"çļĦåŃ¦ä¹ł":4760,"åĽĽä¸ª":4761,"åı¯èĥ½æĢ§":4762,"æĸ°äº§åĵģ":4763,"åģ·":4764,"åı«åģļ":4765,"é«Ķ":4766,"åı¯ä»¥æĺ¯":4767,"è¾ŀ":4768,"æ»¤":4769,"å¥½äºĨ":4770,"åĮĸåĲĪçī©":4771,"äºİæĺ¯":4772,"ä¸ĢçĤ¹":4773,"è´¯":4774,"çľ¼çĿĽ":4775,"13":4776,"éĻ¤æŃ¤":4777,"ç¢Ĺ":4778,"éĶĢåĶ®é¢Ŀ":4779,"æŀĦæĪĲ":4780,"åİ¿":4781,"å°Ĩä¸ĭéĿ¢":4782,"æľīæĹ¶":4783,"åĲĪåĲĮ":4784,"åłµ":4785,"é³":4786,"äººå·¥æĻºèĥ½çļĦåºĶçĶ¨":4787,"æľºåĻ¨ç¿»è¯ĳ":4788,"èĪĩ":4789,"æ°´åĴĮ":4790,"éļıæľº":4791,"é¦Ļæ¸¯":4792,"é©±":4793,"çļĦæĸĩåĮĸ":4794,"åĶ¯ä¸Ģ":4795,"åľŁå£¤":4796,"æ°´ä¸Ń":4797,"èĩ´åĬĽäºİ":4798,"åıĳå±ķçļĦ":4799,"ä¸ºä¸Ģä¸ª":4800,"é¦¨":4801,"ä¿¡åı·":4802,"å¥¥è¿Ĳ":4803,"æ¯ıæ¬¡":4804,"è¯Ńæ³ķåĴĮ":4805,"åĢ¾åĲĳ":4806,"æĺ¯ä¸Ģé¡¹":4807,"æĻ¯è§Ĥ":4808,"éĤĢè¯·":4809,"å®ģéĿĻ":4810,"éľĢè¦ģæ³¨æĦıçļĦæĺ¯":4811,"å¿ĥçģµ":4812,"çļĦç¾İå¥½":4813,"æĺĵäºİçĲĨè§£":4814,"æĸĩä¸Ń":4815,"ç»ĻæĪĳä¸Ģä¸ª":4816,"å¯¹æĸĩæľ¬":4817,"èĭ±éĽĦ":4818,"æķ´ä½ĵ":4819,"éĩįåĨĻä»¥ä¸ĭåı¥åŃĲ":4820,"éĻ¤æŃ¤ä¹ĭå¤ĸ":4821,"æĵħ":4822,"è±¡å¾ģ":4823,"èģĶåĲĪ":4824,"åĴĮæķ°æį®":4825,"yt":4826,"æĮĳ":4827,"å®ĮåĸĦ":4828,"æĢİä¹ĪåĬŀ":4829,"éĿŀå¸¸æľī":4830,"æ¨¡æĭŁäººç±»":4831,"å¦¹":4832,"æĪĲç«ĭ":4833,"çİ°åľ¨è¯·ä½ł":4834,"èµĦæĸĻ":4835,"èµĭ":4836,"åı¦ä¸Ģ":4837,"è®¯":4838,"ãĢĤãĢĬ":4839,"è¿ĻäºĽéĹ®é¢ĺ":4840,"å¤±è´¥":4841,"è¿Ļåº§":4842,"å¾Īéļ¾":4843,"æĮĸ":4844,"çļĦæµģ":4845,"èħ»":4846,"éĸĭ":4847,"å¸¦æĿ¥çļĦ":4848,"å¾·åĽ½":4849,"åĴĮé«ĺ":4850,"ç»Ĵ":4851,"æ¤ħ":4852,"å¸Ń":4853,"åĴĮæĬĢæľ¯":4854,"é¢Ħè®¡":4855,"é½Ĳ":4856,"èĬĤçĽ®":4857,"åĮĹæŀģ":4858,"æĩī":4859,"å¸½":4860,"çģ«æĺŁ":4861,"å½ĵä½ł":4862,"ä¸¾åĬŀ":4863,"æľīäºº":4864,"å®īè£ħ":4865,"çļĦæ¨¡":4866,"å¸®æĪĳæĥ³":4867,"çļĦæĹ¥":4868,"çļĦç¨ĭ":4869,"çĻĮçĹĩ":4870,"åı¯èĥ½ä¼ļå¯¼èĩ´":4871,"æ¼Ķè®²":4872,"åıįæĺł":4873,"ä¸¹":4874,"å¾Ģå¾Ģ":4875,"å¤©ä½ĵ":4876,"æ´ĭèĳ±":4877,"è¹Ī":4878,"ç¤¾ä¼ļçļĦ":4879,"éĸĵ":4880,"è¯¥æĸĩç«ł":4881,"èµĦéĩĳ":4882,"ä¾¿æį·":4883,"çļĦæĥħèĬĤ":4884,"çļĦæĦŁåıĹ":4885,"è¯·ç»ŃåĨĻ":4886,"ä¼ļå¯¹":4887,"çļĦæĬĢå·§":4888,"å¹³æĸ¹":4889,"éŁµ":4890,"æĴŀ":4891,"è¡¬":4892,"æīĢè¿°":4893,"çī¹åĪ«æĺ¯":4894,"ython":4895,"æ¯ıå¹´":4896,"äººå¿ĥ":4897,"ä¸Ńç«ĭ":4898,"ç²¾åĩĨ":4899,"è¦ĨçĽĸ":4900,"ç£ģ":4901,"Ŀåįľ":4902,"ä¸Ĭæľī":4903,"å¹¶è¿Ľè¡Į":4904,"çļĦè¿ĩç¨ĭä¸Ń":4905,"æĭ¼åĨĻéĶĻè¯¯":4906,"æľĪçĲĥ":4907,"æ¼ł":4908,"åı¯ä»¥å°Ŀè¯ķ":4909,"ä¼Ļä¼´":4910,"åħĪè¿Ľ":4911,"è¿ĺæľīåħ¶ä»ĸ":4912,"éĢļå¸¸æĺ¯":4913,"æľīæľº":4914,"äºĨä»Ģä¹Ī":4915,"çĪ¸":4916,"æ¯ıäºº":4917,"æĴĴ":4918,"çļĦæĶ¹":4919,"åº¦çļĦ":4920,"åŃ¦æľ¯":4921,"å®ļåĪ¶":4922,"æłĩè®°":4923,"ç»ĻæĪĳä¸ĢäºĽ":4924,"åĩĿ":4925,"åħ±äº«":4926,"è¿Ļéģĵ":4927,"åĩºçĶŁ":4928,"ç»ĻäºĪ":4929,"åı¯ä»¥å¸®åĬ©æĪĳä»¬":4930,"åªļ":4931,"éĿŀæ³ķ":4932,"è¿Ļåľº":4933,"åĿĩè¡¡":4934,"Python":4935,"èĿ¶":4936,"éŃħåĬĽ":4937,"ç§ĳæĬĢçļĦ":4938,"äººå·¥æĻºèĥ½åı¯ä»¥":4939,"åħ¬å¹³":4940,"èķ´":4941,"çªģåĩº":4942,"çļĦæĳĦåħ¥":4943,"ä¼ļåľ¨":4944,"åģ¶":4945,"éĻ¤æ³ķ":4946,"ç¶ĵ":4947,"éĹľ":4948,"æĸĩç«łåĨħå®¹":4949,"äººå·¥æĻºèĥ½åľ¨åĮ»çĸĹé¢ĨåŁŁ":4950,"éĿŀæ´²":4951,"è¡¨çİ°åĩº":4952,"ä¸Ńå¤®":4953,"æ»´":4954,"æĪĳå·²ç»ı":4955,"çļĦæķĪæŀľ":4956,"ç¾½":4957,"ç½ĳä¸Ĭ":4958,"åĴĮæĥħæĦŁ":4959,"åĩ¯":4960,"å°ıçİĭ":4961,"æļĤ":4962,"æĭĤ":4963,"å¤ĸå¥Ĺ":4964,"æīĭè¡¨":4965,"åıĹæ¬¢è¿İçļĦ":4966,"å¼ķäºº":4967,"ä¼łç»ŁçļĦ":4968,"å°ıçļĦ":4969,"è¯·åĽŀçŃĶ":4970,"ç»Īäºİ":4971,"è¯·ç»ŃåĨĻä»ĸä»¬çļĦå¯¹è¯ĿåĨħå®¹":4972,"åĪłéĻ¤":4973,"ç¼ĺ":4974,"åĩłå¹´":4975,"æĺ¯äººç±»":4976,"çļĦä»·æł¼":4977,"çļĦç¤¾äº¤":4978,"æĪĳå¸ĮæľĽ":4979,"ä¿ĿçķĻ":4980,"çĲĥåĳĺ":4981,"èįĴ":4982,"æĪĳå¯¹":4983,"æııè¿°ä¸Ģä¸ª":4984,"éļľç¢į":4985,"çļĦæ¸ħ":4986,"åģ¥åº·åĴĮ":4987,"çļĦé¦ĸ":4988,"çļĦæ¢¦æĥ³":4989,"è¿ĶåĽŀ":4990,"å¸Ĥä¸Ńå¿ĥ":4991,"çģ«è½¦":4992,"èĪŀè¹Ī":4993,"ç»ĻæĤ¨":4994,"è¡ĵ":4995,"çļĦä¹¦":4996,"ä¸įåĪ°":4997,"å¤ıæĹ¥":4998,"æ¶Īæģ¯":4999,"çİ¯ä¿ĿæĦıè¯Ĩ":5000,"éĢĹ":5001,"å±±èĦī":5002,"ç©·":5003,"éĥ½èĥ½":5004,"AIè¯Ńè¨Ģæ¨¡åŀĭ":5005,"æĪĳè¦ģ":5006,"è¿Ļä¹Ī":5007,"æĽ´å¥½åľ°äºĨè§£":5008,"çĮ«åĴª":5009,"éĩįéĩı":5010,"å¿łè¯ļ":5011,"GPTæ¨¡åŀĭ":5012,"æĪĳåĢĳ":5013,"ç½©":5014,"å¤ªç©ºæİ¢ç´¢":5015,"éģĹäº§":5016,"åįķä½į":5017,"ä¸¤ä¸ªäºº":5018,"æ³¨æĦıåĬĽ":5019,"åİ»å¹´":5020,"ä¸įå¥½":5021,"åĪĨæĶ¯":5022,"èıĩ":5023,"æľºéģĩ":5024,"çĥŃéĹ¨":5025,"æ¼ı":5026,"æĿĲè´¨":5027,"ä¹Łåľ¨":5028,"åĲ¸æĶ¶":5029,"è°¨":5030,"éĢıæĺİ":5031,"åİŁå§ĭæĸĩæľ¬":5032,"æµĭéĩı":5033,"è´¸æĺĵ":5034,"æĬķåħ¥":5035,"é¥®é£Łä¹łæĥ¯":5036,"å®¶æĹı":5037,"æĢĸ":5038,"çļĦçĬ¶":5039,"æľįè£ħ":5040,"éĶģ":5041,"å¾ĭå¸Ī":5042,"èŀįåĲĪ":5043,"æĺ¯éĢļè¿ĩ":5044,"çļĦå¥½å¤Ħ":5045,"è¿Ļæĺ¯åĽłä¸º":5046,"ä¸įåĨį":5047,"åŃ©åŃĲä»¬":5048,"è¯ĬæĸŃåĴĮæ²»çĸĹ":5049,"æĸĩä»¶":5050,"å¿ĥçĲĨåŃ¦":5051,"æīĵéĢł":5052,"å½¢çļĦ":5053,"éĩĳå±ŀ":5054,"äºļæ´²":5055,"æľīéĻĲ":5056,"æĶ¾æĿ¾èº«å¿ĥ":5057,"ä½Ĩå®ĥ":5058,"åĴĮå»ºè®®":5059,"æµħ":5060,"åıĮæĸ¹":5061,"é¢Ī":5062,"çĽ¸æ¯Ķ":5063,"æľīäºĽäºº":5064,"çľŁæĺ¯":5065,"ä»¥æıĲé«ĺ":5066,"è£Ĥ":5067,"çļĦè¯Ŀé¢ĺ":5068,"èĥ½å¤Łå¸®åĬ©":5069,"æĦıè§ģ":5070,"ä»¥ä¸ĭæĸĩç«ł":5071,"æ½®æµģ":5072,"åĪ¶åĵģ":5073,"åĲĪå¹¶":5074,"è¼":5075,"ç¨į":5076,"æıĲä¾ĽæĽ´":5077,"å®īéĿĻ":5078,"çº¢èī²çļĦ":5079,"ç¨¿":5080,"æ¯Ķåĸ»":5081,"èĥ½ä¸įèĥ½":5082,"ä¸įä»ħä»ħ":5083,"ä»ģ":5084,"çļĦç¾İä¸½":5085,"å¹¶è§£éĩĬ":5086,"æħİ":5087,"ä¸Ģéģĵ":5088,"å¤©æ°Ķé¢ĦæĬ¥":5089,"90":5090,"çĶ»éĿ¢":5091,"æľĢå¤ļ":5092,"èĦĨ":5093,"åıįä¹īè¯į":5094,"éĵº":5095,"å¨ľ":5096,"åĹ¯":5097,"éĿ¢è¯ķ":5098,"ç©¿è¶Ĭ":5099,"å¤§åľ°":5100,"æĸ¯åĿ¦":5101,"Ġäººå·¥æĻºèĥ½":5102,"æľ¬èº«":5103,"åį¢":5104,"æł¸å¿ĥ":5105,"åĽŀåĪ°":5106,"æİ¥è§¦":5107,"èī³":5108,"åĪ©æ¶¦":5109,"çħİ":5110,"åľĭ":5111,"æķ°ä¸º":5112,"éī":5113,"å®ŀéĻħä¸Ĭ":5114,"ä¸īè§Ĵ":5115,"çĪ±çļĦ":5116,"çĥŃéĩı":5117,"ä¹Ĳè¶£":5118,"é¹ħ":5119,"éĺĲè¿°":5120,"æĺ¯ç¾İåĽ½":5121,"åħ¨åĽ½":5122,"åĩĨç¡®çļĦ":5123,"åĨłåĨĽ":5124,"èīºæľ¯å®¶":5125,"å°Ĭæķ¬çļĦ":5126,"åľ°ä½į":5127,"or":5128,"çĶŁåĬ¨":5129,"åįıä½ľ":5130,"åİĨåı²ä¸Ĭ":5131,"èµ·æºĲ":5132,"ãĢĤâĢľ":5133,"æĿ¥çļĦ":5134,"å°¼äºļ":5135,"åĨ²çªģ":5136,"çİ»":5137,"æ¶¯":5138,"åįĹæŀģ":5139,"æķ°æį®çļĦ":5140,"ç²¾å½©":5141,"èĩªçĦ¶çİ¯å¢ĥ":5142,"éĿ©åĳ½":5143,"éħįæĸĻ":5144,"éªĳèĩªè¡Įè½¦":5145,"çĶ³è¯·":5146,"å¿ĥä¸Ń":5147,"çī¹æĢ§":5148,"çŃīæĬĢæľ¯":5149,"éļ¾å¿ĺ":5150,"æĸĩæ¡ĪçĶŁæĪĲ":5151,"æ¬º":5152,"è¯Ńä¹ī":5153,"å¸¦æľī":5154,"ä¸Ģå®ļçļĦ":5155,"è½¬åĮĸä¸º":5156,"æĿ¥å¸®åĬ©":5157,"æ³ī":5158,"è¡¨æł¼":5159,"å¾ĪæĬ±æŃī":5160,"çļĦæķĻèĤ²":5161,"ä½ĵç³»":5162,"å½ĵåľ°çļĦ":5163,"æīĵç®Ĺ":5164,"å¼Ģå±ķ":5165,"å°ıåŀĭ":5166,"åħ¬å¼ı":5167,"ä½©":5168,"æĹħç¨ĭ":5169,"æ°ĳæĹı":5170,"è¿Ļè¡¨æĺİ":5171,"çļĦæĬķèµĦ":5172,"æĹ¥å¸¸çĶŁæ´»ä¸Ń":5173,"é¢Ħè®¢":5174,"æĪĳæİ¨èįĲ":5175,"æľīä»»ä½ķ":5176,"åįĩé«ĺ":5177,"ä»Ĭå¤©å¤©æ°Ķ":5178,"çĸ²åĬ³":5179,"åłĨ":5180,"è°ľ":5181,"å¾Īä¸įéĶĻ":5182,"åīįæıĲ":5183,"èĩªåĬ¨é©¾é©¶æ±½è½¦":5184,"åľŁåľ°":5185,"åĴĮäººç±»":5186,"ç´§æĢ¥":5187,"çĳ°":5188,"æŃ¥è¡Į":5189,"åľ¨æĪĳ":5190,"åį³å°Ĩ":5191,"å¼Ĥå¸¸":5192,"éī´":5193,"æĴĳ":5194,"åħ¨çĲĥèĮĥåĽ´åĨħ":5195,"äººéĻħ":5196,"çĴĥ":5197,"æľªæĿ¥åıĳå±ķ":5198,"åĴĮæĹ¶éĹ´":5199,"å¤¹":5200,"2022":5201,"æĪĳæŃ£åľ¨":5202,"çº¦ä¸º":5203,"åİŁåı¥":5204,"ä¸Ģåı¥":5205,"å¾Īæ£Ĵ":5206,"èĬĤèĥ½":5207,"å¯ĮåĲ«":5208,"çĮľ":5209,"åĽŀå¤į":5210,"ä¼ļæľī":5211,"éĻ¶":5212,"æľĢéĩįè¦ģçļĦ":5213,"è¡Ģåİĭ":5214,"åĮĸçŁ³":5215,"äº«çĶ¨":5216,"èº«è¾¹":5217,"ä¾£":5218,"èµİ":5219,"æĪĲåĬŁåľ°":5220,"çļĦåħ³éĶ®è¯į":5221,"çģµæĦŁ":5222,"ä¸įå¾Ĺ":5223,"åı¯ä»¥å¾ĹåĪ°":5224,"æ¢°":5225,"æħĪ":5226,"è¡Ģç®¡":5227,"ç®ĢçŁŃçļĦ":5228,"ä»¥å¸®åĬ©":5229,"æ¡Īä»¶":5230,"åĽŀå½Ĵ":5231,"ç©ĨæľĹ":5232,"ä¼ĺç§ĢçļĦ":5233,"çĽ¸åºĶçļĦ":5234,"æľįåĬ¡åĳĺ":5235,"ä»£æĽ¿":5236,"æĺİåªļ":5237,"æĪĳå»ºè®®":5238,"è¿Ĳè¾ĵ":5239,"èµ¶":5240,"åŁºäºİä»¥ä¸Ĭ":5241,"ä½ĵçİ°":5242,"éģ¥":5243,"ç©ĨæľĹçİĽ":5244,"æĵħéķ¿":5245,"æ´»åĬĽ":5246,"çº¢æ¥¼":5247,"å¤§è±¡":5248,"è¿Ļä»½":5249,"åĩºåıĳ":5250,"åĩºçİ°äºĨ":5251,"é¼»":5252,"ä¸ŃåĽ½çļĦ":5253,"æĻ´æľĹ":5254,"æĪĳä¸įèĥ½":5255,"åŃĻ":5256,"500":5257,"åĸľæ¬¢çļĦ":5258,"çļĦæ°ĽåĽ´":5259,"å¦Ĩ":5260,"å¾Īå¿«":5261,"æĦĪ":5262,"æ³°åĿ¦":5263,"ç¤ºä¾ĭ":5264,"åı¯è¡Į":5265,"ä¸ªæľĪ":5266,"å¤±æľĽ":5267,"éĢļä¿¡":5268,"æİ¥ç§į":5269,"éĢłæĪĲäºĨ":5270,"æľīå®³":5271,"å®¾è¯Ń":5272,"å¤§çĨĬçĮ«":5273,"çļĦç´":5274,"åı¯ä»¥å¸®åĬ©ä½ł":5275,"ä¸įèµ·":5276,"çĽ¸åħ³ä¿¡æģ¯":5277,"åı¯ä»¥ä¸º":5278,"é¢ĨåŁŁçļĦåºĶçĶ¨":5279,"å¯ĴåĨ·":5280,"è¿Ļä¹Ł":5281,"æıĲåīį":5282,"éģµå¾ª":5283,"å¥¥è¿Ĳä¼ļ":5284,"æķ°çĻ¾":5285,"çĶµè§Ĩåī§":5286,"åľ°åĽ¾":5287,"æ©ĺ":5288,"æ¯ģ":5289,"éĻĮ":5290,"ç©ĨæľĹçİĽå³°":5291,"åįĵ":5292,"ç²¾åĬĽ":5293,"æŁĲç§į":5294,"æļĹç¤º":5295,"çļĦçĹħ":5296,"è«":5297,"çļĦæ¤":5298,"åıĹä¼¤":5299,"åĴĮåģ¥åº·":5300,"æĪĳä»¬å¿ħé¡»":5301,"åĲĪæ³ķ":5302,"åı¯èĥ½çļĦ":5303,"åŃ¦ä¹łç¼ĸç¨ĭ":5304,"å°¼åħĭåı·":5305,"å¿ĺè®°":5306,"ä¹ŁéĿŀå¸¸":5307,"çĽĪ":5308,"æķ°åŃĹåĮĸ":5309,"æī«":5310,"çļĦçģµ":5311,"éķ¿åŁİ":5312,"è´¾":5313,"ä¼Ĺå¤ļ":5314,"è¯Ĺäºº":5315,"æĻ®åıĬ":5316,"åı¯èĥ½éľĢè¦ģ":5317,"çļĦæĻ¯çĤ¹":5318,"æ¸ħæ¥ļ":5319,"åİ¨æĪ¿":5320,"æĸĳ":5321,"è¯·æ±Ĥ":5322,"å°¿çĹħ":5323,"æ¯ıåĳ¨":5324,"çĥŃçĪ±":5325,"åĪ¶æĪĲ":5326,"è°·æŃĮ":5327,"æĸĩæ¡£":5328,"åĬŀåħ¬å®¤":5329,"æĪĳè¿ĺ":5330,"åŃ¦èĢħ":5331,"å¤·":5332,"åĮºåĿĹéĵ¾æĬĢæľ¯":5333,"çļĦæĢ»ç»ĵ":5334,"äºĭé¡¹":5335,"æľºåľº":5336,"åİĨç¨ĭ":5337,"80":5338,"çļĦåĲįåŃĹ":5339,"åħģ":5340,"çŃīåĽłç´ł":5341,"çļĦæĶ¶":5342,"åľ¨éĤ£éĩĮ":5343,"å¼ºå¤§çļĦ":5344,"æ°§æ°Ķ":5345,"è°¢è°¢ä½ł":5346,"å¾®é£İ":5347,"ä»¥ä¸ĭæĺ¯ä¸ĢäºĽ":5348,"æĮĩåįĹ":5349,"æĪĳæĥ³è¦ģ":5350,"æ³°åĿ¦å°¼åħĭåı·":5351,"é¥¼å¹²":5352,"å¤§è§Ħæ¨¡":5353,"å§Ĳ":5354,"çİ»çĴĥ":5355,"è¾Ľ":5356,"çļĦçŁŃæĸĩ":5357,"æĺ¯è°ģ":5358,"éĩİçĶŁåĬ¨çī©":5359,"åľ¨è¿Ļä¸ªåı¥åŃĲä¸Ń":5360,"çº¢æ¥¼æ¢¦":5361,"çĶ¨åĵģ":5362,"çĲĨå¿µ":5363,"éĽ¾":5364,"çļĦæŃ¥éª¤":5365,"çļĦåĲĮæĹ¶":5366,"éĩİé¤Ĳ":5367,"çļĦæĢ§èĥ½":5368,"æµ´":5369,"è§£çŃĶ":5370,"åĸ·":5371,"æĳĦæ°ı":5372,"éĹ®çŃĶ":5373,"å¤ļåħĥ":5374,"çıłç©ĨæľĹçİĽå³°":5375,"çļĦæİ¢":5376,"çĶ³åħĭ":5377,"æĿ°åħĭ":5378,"æ³½":5379,"èĤĸçĶ³åħĭ":5380,"èĢģé¼ł":5381,"çļĦæķĳ":5382,"ä¸Ģç¯ĩåħ³äºİ":5383,"è¿ľç¨ĭ":5384,"ä¸ŃçļĦåħ³éĶ®è¯į":5385,"åį±å®³":5386,"Ġ+":5387,"ä½Ĩåľ¨":5388,"æ¶ĪéĻ¤":5389,"è¾£æ¤Ĵ":5390,"çĶµåĻ¨":5391,"å·¥ä½ľæķĪçİĩ":5392,"æľīçĶ¨":5393,"ç»ĦæĪĲéĥ¨åĪĨ":5394,"åĩºéĹ¨":5395,"å¯º":5396,"ä¼ı":5397,"åĪ¶åº¦":5398,"çļĦçī¹å¾ģ":5399,"å¤Ħäºİ":5400,"æĿ¥åĪ°":5401,"èĥ½å¤Łåľ¨":5402,"çĶ·å£«":5403,"æ³Ħ":5404,"åĩºåİ»":5405,"br":5406,"åĲİæŀľ":5407,"ä¼ŀ":5408,"çĸ¼":5409,"åī²":5410,"ä»ĸåĢĳ":5411,"æķĻåŃ¦":5412,"ç³ĸå°¿çĹħ":5413,"ä¹Ļ":5414,"å®ļä½į":5415,"èħ°":5416,"åĴĮè¡Įä¸º":5417,"ä¸ºä¸»":5418,"æ¸©é¦¨":5419,"æĮĸæİĺ":5420,"æĪĳæĺ¨å¤©":5421,"æµĵéĥģ":5422,"çļĦä½ľçĶ¨":5423,"å¯¼èĩ´äºĨ":5424,"ç¾İåĳ³çļĦ":5425,"å®ĥåľ¨":5426,"æľŁæľĽ":5427,"æĶ¹æŃ£":5428,"ä¸įå°ĳ":5429,"éľį":5430,"¡èĲĿåįľ":5431,"èĥ¡èĲĿåįľ":5432,"è°¢è°¢ä½łçļĦ":5433,"æľĢè¿ĳçļĦ":5434,"å¤ķ":5435,"ç³Ĭ":5436,"æĺ¨æĻļ":5437,"åįıè°ĥ":5438,"å¾Īå¤§çļĦ":5439,"ç²¾ç¡®":5440,"çĲĥéĺŁ":5441,"èĢĮä¸į":5442,"ä¸Ģèµ·åİ»":5443,"è¿ĩäºİ":5444,"å°ıæĺİçļĦ":5445,"æĦŁæ¿Ģ":5446,"ç»¼ä¸Ĭ":5447,"äº¦":5448,"åĮ»çĸĹè¡Įä¸ļ":5449,"æ¢¨":5450,"éĿ¢ä¸Ĭ":5451,"æ°ĽåĽ´":5452,"å·²çŁ¥":5453,"åı¤è¯Ĺç»ŃåĨĻ":5454,"æ³¥":5455,"è¿Ļä¸ªäºº":5456,"çłĶç©¶äººåĳĺ":5457,"é¥®çĶ¨":5458,"å¤º":5459,"æĹłè®ºæĺ¯":5460,"åįıåĬ©":5461,"çľŁæŃ£çļĦ":5462,"çĥĤ":5463,"æ¥Ń":5464,"åĸľåī§":5465,"ï¼ģâĢĿ":5466,"æĭĸ":5467,"çĽĨ":5468,"åĨ¬å¤©":5469,"æĺĨ":5470,"æ¡Īä¾ĭ":5471,"æĹ±":5472,"å¹³åĿĩåĪĨç»Ļ":5473,"çİ°åľº":5474,"åĲģ":5475,"ä¸ĬäºĨ":5476,"ç§ĭåŃ£":5477,"çĭ®åŃĲ":5478,"æĻ¶":5479,"è®ĵ":5480,"è¿ĻäºĽä¿¡æģ¯":5481,"æ¦Ħ":5482,"è¯·ä¸º":5483,"æĦŁçŁ¥":5484,"æ¿Ģåıĳ":5485,"å§ĭç»Ī":5486,"åĩıç¼ĵ":5487,"æĪĳä»Ĭå¤©":5488,"è¶ħçº§":5489,"åıł":5490,"ç·":5491,"èĩ³åħ³éĩįè¦ģ":5492,"åĬ£":5493,"çĶŁæ´»çļĦ":5494,"åģļæ³ķ":5495,"Ħæ¦Ħ":5496,"çļĦåĬĽéĩı":5497,"çİ¯å¢ĥéĹ®é¢ĺ":5498,"éĢīæĭ©ä¸Ģä¸ª":5499,"éĤ¦":5500,"ä¼ĺåħĪ":5501,"æĥ§":5502,"çļĦå£°éŁ³":5503,"é¥±":5504,"éĢĹåı·":5505,"çĲĨæĥ³":5506,"åĪĽéĢłåĬĽ":5507,"æĪĳåİ»":5508,"é¹¿":5509,"çļĦèĬ±":5510,"å¼¦":5511,"ä½ľä¸ļ":5512,"æįŁå¤±":5513,"åĩºä¸Ģä¸ª":5514,"ä¿ĿæĬ¤æĪĳä»¬çļĦ":5515,"æ§":5516,"å·¥ä½ľåĴĮ":5517,"ä¸ĵæ³¨äºİ":5518,"âĦ":5519,"æĸĩç«łä¸ŃæıĲåĪ°":5520,"ä¸įå¤Ł":5521,"æŁľ":5522,"åıĻ":5523,"ä¹°äºĨä¸Ģ":5524,"åįİçĽĽ":5525,"å¯ĵ":5526,"æĥħå¢ĥ":5527,"çī©èģĶç½ĳ":5528,"å¥¶éħª":5529,"æĿ¨":5530,"åļ":5531,"æ»ļ":5532,"è®¾è®¡ä¸Ģä¸ª":5533,"å®¶åĽŃ":5534,"æī©å±ķ":5535,"åı¤åħ¸":5536,"è¿ĲåĬ¨åĳĺ":5537,"åĬłçĥŃ":5538,"åĩºèī²çļĦ":5539,"ä¹ĭæĹħ":5540,"ä¸įèī¯":5541,"æĶĢ":5542,"åıĹåĪ°äºĨ":5543,"æĻļé¤Ĳ":5544,"éĢļè¿ĩå¯¹":5545,"âĢ¦âĢ¦":5546,"èģĮåľº":5547,"èĤīç±»":5548,"ç§ĳåŃ¦å®¶ä»¬":5549,"åįİçĽĽé¡¿":5550,"éªĹ":5551,"æķĻå¸Ī":5552,"ç®ĢåĮĸ":5553,"çĿ¡è§ī":5554,"å¦»":5555,"çļĦçĮ«":5556,"éĢĨ":5557,"éĶĻåĪ«":5558,"ä¸įç¡®å®ļ":5559,"å¤įæĿĤçļĦ":5560,"çıįæĥľ":5561,"éĶĻåĪ«åŃĹ":5562,"è¿Ļä¸ªæķħäºĭ":5563,"æĸ°æĬĢæľ¯":5564,"è´¢å¯Į":5565,"æĺ¯ä¸Ģå®¶":5566,"åĩºçļĦ":5567,"éĻĮçĶŁ":5568,"çĩ¥":5569,"âĦĥ":5570,"å°ĸ":5571,"ç»Ļäºº":5572,"çĭ¼":5573,"æĸľ":5574,"çĶ¨éĢĶ":5575,"çĲĨçĶ±":5576,"çĽ¸å½ĵ":5577,"é¡Į":5578,"ä¸ĭçļĦ":5579,"è¯·æł¹æį®":5580,"ç«Ł":5581,"æ¼«æŃ¥":5582,"åĿĲåľ¨":5583,"ä»ĸä»¬ä¹ĭéĹ´":5584,"åĭĥ":5585,"Ġ4":5586,"éŃĤ":5587,"æĶ¹åıĺäºĨ":5588,"è®°å¾Ĺ":5589,"ç¾İæĻ¯":5590,"å±ıå¹ķ":5591,"æĸ°éĹ»æłĩé¢ĺ":5592,"å¼ºåº¦":5593,"èŃ¦æĸ¹":5594,"æķĮ":5595,"è¿Ī":5596,"æĺİäº®":5597,"åı¯ä»¥çĶ¨äºİ":5598,"å¾Īå¤ļäºº":5599,"ä¸¤äºº":5600,"æģĲæĢĸ":5601,"éĹ»åĲį":5602,"æııåĨĻ":5603,"ä»¥åħ¶":5604,"ä¸ĸçķĮåĲĦåľ°":5605,"ä¸įåŃĺåľ¨":5606,"it":5607,"çİ°ä»£ç¤¾ä¼ļ":5608,"ĠÃ·":5609,"å¦Ĥä½ķåĪ¶ä½ľ":5610,"åıĤæķ°":5611,"åĲ¬éŁ³ä¹Ĳ":5612,"æĺİçĻ½äºĨ":5613,"æ³ª":5614,"ĸæģ¯":5615,"ä¿Ħ":5616,"åģıè§ģ":5617,"æľīæ°§":5618,"è³ĩ":5619,"æĸĩæľ¬è¿Ľè¡Į":5620,"åľ°åĲį":5621,"çļĦçĭ¬":5622,"çļĦç¼ĸç¨ĭ":5623,"å£³":5624,"éĢļå¸¸ä¼ļ":5625,"èĨľ":5626,"åĲĦä¸ªé¢ĨåŁŁ":5627,"æ¡Ĩ":5628,"èħ¾":5629,"å±ħä½ı":5630,"å¼ķå¯¼":5631,"æ²Ļåıĳ":5632,"çļĦæ¡":5633,"äººæĢ§":5634,"åĴĮçĲĨè§£":5635,"æıĲé«ĺäºĨ":5636,"èĸ¯":5637,"éĶĻè¿ĩ":5638,"å·²æĪĲä¸º":5639,"æł¹æį®èĩªå·±çļĦ":5640,"æ£ĭ":5641,"çŃĽ":5642,"å»ºè®®åĲĹ":5643,"åİŁåŃĲ":5644,"åł´":5645,"é£İæļ´":5646,"æĿī":5647,"çĭĹçļĦ":5648,"è¡Įé©¶":5649,"èī°":5650,"çİ«":5651,"åĳ¼åĲģ":5652,"ãĢĤ\"<|":5653,"çļĦæ²ŁéĢļ":5654,"çļĦåĳ³éģĵ":5655,"æ¶¨":5656,"å¹²åĩĢ":5657,"å°ĩ":5658,"è°ĭ":5659,"äºļé©¬":5660,"çĤİçĥŃ":5661,"ç¢ĳ":5662,"å¾Īé«ĺåħ´":5663,"è¡¨è¿°":5664,"åĴĮä¸ªäºº":5665,"å¹¿æ³ĽçļĦ":5666,"åºĻ":5667,"ç²®":5668,"èĬĿå£«":5669,"å¸¦çĿĢ":5670,"åħ³éĹŃ":5671,"çŃīå¤ļä¸ª":5672,"æĽ´æĶ¹":5673,"æİ¨è¿Ľ":5674,"æŁ¿":5675,"ä»İä¸Ń":5676,"æĭĽèģĺ":5677,"æ¯ķä¸ļ":5678,"æĹ¥çĽĬ":5679,"æ¿ĢçĥĪ":5680,"æķ°æį®åĪĨæŀĲ":5681,"æ¸©å®¤æ°Ķä½ĵæİĴæĶ¾":5682,"æĪ¿å±ĭ":5683,"è¿ĻäºĽéĥ½æĺ¯":5684,"æĹ©æľŁ":5685,"çļĦæ²Ļ":5686,"ä½Ĩä¸į":5687,"æĮ¯":5688,"æĸĩè¨Ģ":5689,"æľīæĦıä¹ī":5690,"çļĦæĻ®":5691,"ä½łæĺ¯":5692,"ä¼Ĳ":5693,"èĥľåľ°":5694,"____":5695,"å±Ĥæ¬¡":5696,"ä¸Ģèĩ´":5697,"èĺĳ":5698,"åħģè®¸":5699,"éĩıåŃĲåĬĽåŃ¦":5700,"åĪĳ":5701,"éĻªä¼´":5702,"å®¢æľį":5703,"è¿Ļæ®µè¯Ŀ":5704,"æĪĳä»¬åľ¨":5705,"æ¿ĢåĬ±":5706,"çīĽä»Ķ":5707,"çļĦçĬ¶æĢģ":5708,"æĺĤ":5709,"å¤§å¤§":5710,"å©´":5711,"æīİ":5712,"çļĦä¾ĭåŃĲ":5713,"æľĪäº®":5714,"èĭ¹æŀľåħ¬åı¸":5715,"ç¿ħ":5716,"äºļé©¬éĢĬ":5717,"at":5718,"æĺ¯ä¸ĸçķĮä¸ĬæľĢ":5719,"ç¥ĸ":5720,"æĹ©æĻ¨":5721,"æ´Ĵ":5722,"æĥĳ":5723,"ï¼ħ":5724,"äººå·¥æĻºèĥ½æĬĢæľ¯åľ¨":5725,"å¾Į":5726,"çļĦæķ°åŃĹ":5727,"æĺ¾å¾Ĺ":5728,"å®īåħ¨åĴĮ":5729,"åľ°çĲĨ":5730,"æºª":5731,"æľīæĹ¶åĢĻ":5732,"é«ĺè´¨éĩı":5733,"èĺĳèıĩ":5734,"å»ºçŃĳçī©":5735,"åĲĳéĩı":5736,"èĥĥ":5737,"åıĳéĢģ":5738,"åŀĤ":5739,"æĪĺæĸĹ":5740,"ä¸ĢäºĽäºº":5741,"æĸĩè¨Ģæĸĩ":5742,"ä¿Ŀæļĸ":5743,"åľ¨åĵªéĩĮ":5744,"ä½Ĩä¹Ł":5745,"æĨ":5746,"æĢ»ä½ĵ":5747,"é£İåħī":5748,"ç¿Ķ":5749,"çļĦå½¢å¼ı":5750,"è¯Ńå¢ĥ":5751,"ä¿®å¤į":5752,"æ¾³":5753,"åģ¥èº«æĪ¿":5754,"éĿ¢ä¸´çĿĢ":5755,"è¯¥åı¥åŃĲ":5756,"æ©Ħæ¦Ħ":5757,"çŃīäºİ":5758,"å¹¶è¾ĵåĩº":5759,"æķ°æį®åĴĮ":5760,"çļĦæķĳèµİ":5761,"æĬĢæľ¯çļĦåıĳå±ķ":5762,"å¸ĤåľºèĲ¥éĶĢ":5763,"æŀģç«¯å¤©æ°Ķ":5764,"åľ¨ç»Ļå®ļçļĦ":5765,"å²ģçļĦ":5766,"é½¿":5767,"èĵĿèī²çļĦ":5768,"çİ«çĳ°":5769,"æĪĳä»¬ä¼ļ":5770,"çļĦæŃĮæĽ²":5771,"å¤ĩåıĹ":5772,"åĳĪçİ°åĩº":5773,"èĿ´":5774,"åĽ¾æ¡Ī":5775,"æķħäºĭæĥħèĬĤ":5776,"èĿ´èĿ¶":5777,"æĶ¿æ²»":5778,"è®©è®¡ç®Ĺæľº":5779,"æĪĳä»¬åı¯ä»¥çĶ¨":5780,"åĩºçīĪ":5781,"å²Ĺ":5782,"åĴĮçİ¯å¢ĥ":5783,"æĪĺçķ¥":5784,"äººå·¥æĻºèĥ½åĴĮ":5785,"éĢļçŁ¥":5786,"çļĦåľºæĻ¯":5787,"æł¹æį®æłĩé¢ĺ":5788,"ç¢³æİĴæĶ¾":5789,"äºīè®®":5790,"éĤ»":5791,"åĪĨåĪ«æĺ¯":5792,"ä¹Łèĥ½":5793,"\"ãĢĤ":5794,"ç«ĭåį³":5795,"ç»ıèĲ¥":5796,"è®¾å®ļ":5797,"çļĦåĲįç§°":5798,"çĪ¶æ¯į":5799,"åįıè®®":5800,"éĺ¿çĶĺ":5801,"å¿«éĢŁåıĳå±ķ":5802,"çĺ¦":5803,"ç»¼ä¸ĬæīĢè¿°":5804,"ç»³":5805,"çĭ±":5806,"åıĳè¡¨":5807,"è¤":5808,"åĲįåı«":5809,"åºŁå¼ĥ":5810,"æıŃç¤º":5811,"ç§Ĵ":5812,"èĥĸ":5813,"éĶħä¸Ń":5814,"å»ºéĢł":5815,"ä¸Ģæ®µå¯¹è¯Ŀ":5816,"ä¸ªä½ĵ":5817,"æ¢ģ":5818,"çĤī":5819,"çļĦåĴĸåķ¡":5820,"æ°¢":5821,"æķ°æį®ä¸Ń":5822,"åıĳçİ°äºĨ":5823,"å¼ºåĮĸ":5824,"éĢĶå¾Ħ":5825,"ä½Ĩæĺ¯æĪĳ":5826,"çļĦæĬ¥":5827,"æĪĸç¼º":5828,"å¤ªå¤ļ":5829,"å¥½åĥı":5830,"ç´łé£Ł":5831,"åĲİçļĦåı¥åŃĲ":5832,"å®ŀä½ĵè¯ĨåĪ«":5833,"ç§ĳå¹»å°ıè¯´":5834,"æĪª":5835,"èĤĸçĶ³åħĭçļĦæķĳèµİ":5836,"ä¸Ģåħ±":5837,"æĪĲçĨŁ":5838,"çŁ¶":5839,"çļĦæ°ĶåĢĻ":5840,"æĽ¿æį¢ä¸º":5841,"æĽ´æŃ£":5842,"æĭĴ":5843,"æĴ°åĨĻ":5844,"æĪĳåĴĮ":5845,"ä¼ĺç¾İ":5846,"å½»":5847,"çĶµåŃĲåķĨåĬ¡":5848,"å¹¼":5849,"å¾¡":5850,"æ²ĥ":5851,"æ©Ł":5852,"çİ¯ä¿ĿçļĦ":5853,"çļĦæķ°åŃ¦":5854,"èĥ¶":5855,"åĴĮç®¡çĲĨ":5856,"èħĬ":5857,"ç»ĻæĪĳæİ¨èįĲ":5858,"åĬłå·¥":5859,"æĵ¦":5860,"æĦıå¤ĸ":5861,"åľ°åĿĢ":5862,"å¤±ä¸ļ":5863,"è±ĨèħĲ":5864,"éŀĭåŃĲ":5865,"çĶ¢":5866,"å½¢æĢģ":5867,"éĽķ":5868,"çļĦåħ³éĶ®ä¿¡æģ¯":5869,"å¼ķèµ·äºĨ":5870,"æĳĦæ°ıåº¦":5871,"äºĳè®¡ç®Ĺ":5872,"ä¸Ģä¸ĭè¿Ļç¯ĩæĸĩç«ł":5873,"æĸ°åĨł":5874,"è¾ĥä¸º":5875,"äººåĴĮ":5876,"éĿŀå¸¸éĢĤåĲĪ":5877,"å®¶éĩĮ":5878,"æĸĩèīº":5879,"è®©äººæĦŁåĪ°":5880,"äººæķ°":5881,"åŀ«":5882,"æĪĸæĺ¯":5883,"çī¹å®ļçļĦ":5884,"æĦģ":5885,"éĢıæ°Ķ":5886,"è¯·ä»İ":5887,"è¯·ä¸ºæĪĳ":5888,"çĶµå½±åĲįç§°":5889,"çĽĸèĮ¨":5890,"åıĺéĩı":5891,"çļĦä¸įåĲĮ":5892,"å¿ĥèĦıçĹħ":5893,"ob":5894,"åıĺå¾Ĺè¶ĬæĿ¥è¶Ĭ":5895,"çļĦæİĴæĶ¾":5896,"æģ°":5897,"çĥ¤ç®±":5898,"éĢĤçĶ¨äºİ":5899,"èħ¹":5900,"åŁºäºİä»¥ä¸ĭ":5901,"å§ľ":5902,"èµ°äºĨ":5903,"çļĦæĶ¿":5904,"é«ĺçļĦå±±å³°":5905,"å°ıæĺİåĴĮå°ıçº¢":5906,"èĻ¾":5907,"åı¯ä»¥ä»İ":5908,"æİ¥è¿ĳ":5909,"æĸ°æ¬¾":5910,"æĪĲä¸ºä¸Ģä¸ª":5911,"199":5912,"ä¼ģä¸ļå®¶":5913,"--":5914,"åŁºäºİä»¥ä¸Ĭè¿Ļæ®µæĸĩæľ¬":5915,"æ¯ıä¸ªäººéĥ½åºĶè¯¥":5916,"ä¹ĭä¸Ń":5917,"éĶ»çĤ¼èº«ä½ĵ":5918,"çļĦè¡¨çİ°":5919,"åĿļå®ļ":5920,"è¿Ļæĺ¯ä¸Ģéĥ¨":5921,"æķ°æį®è¿Ľè¡Į":5922,"æ²¡æľīä»»ä½ķ":5923,"æº¯":5924,"åĮ»åŃ¦å½±åĥı":5925,"ä¸ĭåĳ¨":5926,"åĩıå°ĳä½¿çĶ¨":5927,"åĩıèĤ¥":5928,"çļĦä¸ľè¥¿":5929,"äººä»¬å¯¹":5930,"åĩłç§į":5931,"éĺ³åħīæĺİåªļ":5932,"çħ§é¡¾":5933,"çļĦæłĳ":5934,"éĶĻè¯¯è¿Ľè¡Į":5935,"çĶľçĤ¹":5936,"Ġä½ł":5937,"çļĦæ¤į":5938,"å¿ĹæĦ¿":5939,"åĽºå®ļ":5940,"çļĦä¸»è¦ģè§ĤçĤ¹æĺ¯":5941,"åįļå®¢":5942,"éŁ§":5943,"ç®ĢåİĨ":5944,"æ·±è¿ľçļĦå½±åĵį":5945,"ä¸įåı¯æĪĸç¼º":5946,"å¦ĤæŀľæĪĳä»¬":5947,"è¢«è§Ĩä¸º":5948,"çļĦæ³¨":5949,"åħ´è¶£çĪ±å¥½":5950,"è¿ĳæľŁ":5951,"è¯¦ç»ĨçļĦ":5952,"åĴĮç»ıæµİ":5953,"åĳ¨æľŁ":5954,"æĮĩä»¤":5955,"åĨħçļĦ":5956,"ç»Ļå®ļä¸Ģç¯ĩæĸĩç«ł":5957,"ç¾İå¦Ļ":5958,"è¸ı":5959,"çĶŁæĢģçİ¯å¢ĥ":5960,"ä¹Łå°Ĩ":5961,"åĴĮåŃ¦ä¹ł":5962,"çļĦäººçī©":5963,"å¡ĳæĸĻè¢ĭ":5964,"æĢ§æł¼":5965,"èĶ¬èıľåĴĮ":5966,"ðŁ":5967,"çļĦæľĢä½³":5968,"è¡¥åħħ":5969,"çªģçł´":5970,"æĿ¥åĩıå°ĳ":5971,"åħ½":5972,"è¯·å¸®æĪĳ":5973,"è¯Ī":5974,"åľ¨åħ¬åĽŃéĩĮ":5975,"åıĸæ¶Ī":5976,"èªīä¸º":5977,"æľ¬è´¨":5978,"åĪĽéĢłä¸Ģä¸ª":5979,"èĥ¡æ¤Ĵ":5980,"èĢĥèĻĳåĪ°":5981,"ä½łèĥ½åĳĬè¯īæĪĳ":5982,"åİĺç±³":5983,"å¾®ç¬ĳ":5984,"ç®¡çĲĨåĴĮ":5985,"åĮħå®¹":5986,"é¸ŁåĦ¿":5987,"ç³Ł":5988,"ä»¥åĲİ":5989,"è§Ĵèī²ä»ĭç»į":5990,"çļĦç¤¼":5991,"ç¬¬ä¸Ģæ¬¡":5992,"åĴĮæĬĢèĥ½":5993,"èĨĢ":5994,"çĶµå½±è¯Ħè®º":5995,"ç§ĳæĬĢåħ¬åı¸":5996,"åľŁè±Ĩ":5997,"ä»¥åīį":5998,"å¤ļæ¬¡":5999,"çļĦæ³ķå¾ĭ":6000,"å¥³åŃĲ":6001,"åĬłå¯Ĩ":6002,"çļĦæ¸©åº¦":6003,"åĩłä¹İ":6004,"åı¯ä»¥æıĲä¾Ľ":6005,"æĤłä¹ħ":6006,"çī©æµģ":6007,"æĿīçŁ¶":6008,"éĻĪè¿°åı¥":6009,"æľ¨æĺŁ":6010,"çį":6011,"çļĦåŃ£èĬĤ":6012,"åīĳ":6013,"èĥĨ":6014,"å¯¹å¾ħ":6015,"å¨ģå¤·":6016,"è¿Ļä¸ªè¯į":6017,"èĪį":6018,"è¾ĥé«ĺ":6019,"å¤ıå¨ģå¤·":6020,"åı¯ä»¥å¸®åĬ©åĮ»çĶŁ":6021,"ä¼į":6022,"æ¡ĮåŃĲ":6023,"çļĦæµ·æ»©":6024,"å®½æĿ¾":6025,"ä»Ķç»Ĩ":6026,"ä¼ĺéĽħ":6027,"çļĦç¨ĭåºı":6028,"ç»ŃåĨĻåı¤è¯Ĺ":6029,"é©¬æĭī":6030,"å»ºç«ĭä¸Ģä¸ª":6031,"çļĦä»£è¡¨":6032,"çļĦæīĭæľº":6033,"å¸ĿåĽ½":6034,"éľĢè¦ģè¿Ľè¡Į":6035,"æľ¯è¯Ń":6036,"å¹¶ä½¿çĶ¨":6037,"æĪ¿åŃĲ":6038,"éĴ¢çĲ´":6039,"çİĭæĺŁ":6040,"ä¸Ģå°ģ":6041,"ç§ĺå¯Ĩ":6042,"çļĦç¬ĳ":6043,"åĿļæŀľ":6044,"éĥ½å¾Ī":6045,"åķı":6046,"å¤ļå½©":6047,"å¹²æī°":6048,"ä½łåı¯ä»¥å°Ŀè¯ķ":6049,"å·¾":6050,"åĴĮæµ·":6051,"çļĦå¸®åĬ©":6052,"ä¸ºæĪĳä»¬":6053,"ä¸ĭä¸Ģä¸ª":6054,"æ¯ıä¸Ģä¸ª":6055,"åĬłåī§":6056,"å¤ĸè§Ĥ":6057,"åĴĮèĶ¬èıľ":6058,"å®³æĢķ":6059,"å¹½é»ĺ":6060,"ä¸Ģæ¬¡æĢ§":6061,"çīĩæ®µ":6062,"åĻª":6063,"åıĸåĩº":6064,"æ¸ł":6065,"æĭĵå±ķ":6066,"å«Įçĸĳ":6067,"æĹħæ¸¸æĻ¯çĤ¹":6068,"åĮħåĲ«äºĨ":6069,"éĩįè¦ģçļĦä½ľçĶ¨":6070,"ä¸įéĶĻçļĦéĢīæĭ©":6071,"åĩıåİ»":6072,"åİŁæĿ¥":6073,"ç¿ł":6074,"åī©ä½Ļ":6075,"å¤ļå¹´":6076,"åĳĢ":6077,"è¿ĻäºĽæĬĢæľ¯":6078,"èĪªç©º":6079,"å½ĵæĪĳ":6080,"æ¯ıä¸ªäººçļĦ":6081,"åĸĦèī¯":6082,"çĸı":6083,"æ¡¶":6084,"ä¸įçĶ¨":6085,"ä¸»åĬ¨":6086,"æ¯Ķäºļ":6087,"æ¯Ķå¦Ĥè¯´":6088,"æĢ§è´¨":6089,"åı¯è¯»":6090,"ä¿ĿæĮģèº«ä½ĵåģ¥åº·":6091,"åĺ´":6092,"çĶ¨æĪ·çļĦ":6093,"å¹¿éĺĶ":6094,"å¯Ĩåº¦":6095,"èĤ©":6096,"æĮĩæłĩ":6097,"åľ°éĵģ":6098,"æĺŁæĺŁ":6099,"è¿ģ":6100,"å½ĵæĪĳä»¬":6101,"ç»Ĩèħ»":6102,"åĮĹäº¬å¸Ĥ":6103,"åħ¨éĥ¨":6104,"è¿Ŀåıį":6105,"æľ¬å°ıè¯´":6106,"çİ°çĬ¶":6107,"å±ķçİ°äºĨ":6108,"å¯Ħ":6109,"è®©å®ĥ":6110,"æĬĳéĥģ":6111,"çļĦç©ºæ°Ķ":6112,"ç»µ":6113,"åĨ°å·Ŀ":6114,"éļĨ":6115,"Ġ(":6116,"oo":6117,"éģĹä¼ł":6118,"æĮº":6119,"å¤§æĪĺ":6120,"åĩĨå¤ĩå¥½":6121,"é¢ĳçİĩ":6122,"ä¸Ĭæĺł":6123,"ç¥ŀå¥ĩ":6124,"æľīæ°§è¿ĲåĬ¨":6125,"çļĦç¡":6126,"æĢİä¹Īåģļ":6127,"çļĦçł´":6128,"ä»Ĭå¤©çļĦå¤©æ°Ķ":6129,"è¿Ļä¸¤":6130,"æĭħä»»":6131,"æ¸´":6132,"çĸ¾çĹħçļĦ":6133,"çļĦæĢĿèĢĥ":6134,"å§Ĩæĸ¯":6135,"å®īåħ¨æĢ§":6136,"åĪ¸":6137,"ĠAI":6138,"ä¸ĸçķĮä¸Ĭ":6139,"èĮ«":6140,"çļĦæĢĿç»´":6141,"è¿ĺè¦ģ":6142,"çĽ¸çŃī":6143,"è¯¦ç»ĨåĽŀçŃĶ":6144,"åŀĥåľ¾éĤ®ä»¶":6145,"å±ķç¤ºäºĨ":6146,"åĨĮ":6147,"ä»£è°¢":6148,"æ´ĽæĿīçŁ¶":6149,"ç½²":6150,"çļĦéĢŁåº¦":6151,"Ja":6152,"æ¶Į":6153,"çĲ³":6154,"çļĦæ°Ķæģ¯":6155,"æĸĩæľ¬ä¸ŃçļĦåħ³éĶ®è¯į":6156,"éĢīæĭ©éĢĤåĲĪ":6157,"è¡°":6158,"æĤ²ä¼¤":6159,"æģĴæĺŁ":6160,"æłĳæľ¨":6161,"èı²å°Ķ":6162,"æĹĹ":6163,"è¯·æĢ»ç»ĵ":6164,"éĹ®é¢ĺåĴĮ":6165,"ç´łè´¨":6166,"çļĦåħī":6167,"å¿į":6168,"çĨŁæĤī":6169,"è¢«èªīä¸º":6170,"éŁ¿":6171,"ä¹ĺåĿĲ":6172,"å©ļç¤¼":6173,"ç¿Ĵ":6174,"å®ļå¾ĭ":6175,"Ġä½¿çĶ¨":6176,"è®¤åı¯":6177,"åį±æľº":6178,"çļĦä¸Ģæ®µå¯¹è¯Ŀ":6179,"å®´":6180,"çļĦèĭ¹æŀľ":6181,"è¡¬è¡«":6182,"æ°Ľ":6183,"ä¸ĬçıŃ":6184,"é»Ľ":6185,"çļĦèĩªçĦ¶":6186,"éĿ¢æĿ¡":6187,"æľĢéĢĤåĲĪ":6188,"äººä»¬åľ¨":6189,"70":6190,"å¹³éĿĻ":6191,"å®ĮæĪĲä»»åĬ¡":6192,"çļĦé¢ĨåŁŁ":6193,"è¿Ļæł·åı¯ä»¥":6194,"çļĦåĬŁèĥ½":6195,"çļĦæ¯ĶèµĽ":6196,"å¦Ĥä»Ĭ":6197,"ä»ĩ":6198,"ä¸ĭéĿ¢çļĦæĸĩæľ¬":6199,"ä»¥ä¸ĭåĩłä¸ª":6200,"èĪĴéĢĤçļĦ":6201,"æĺ¯ä¸ºäºĨ":6202,"åľ°çĲĥä¸Ĭ":6203,"çĵ¦":6204,"æĸĩæľ¬åĪĨç±»":6205,"åħ¶ä»ĸäºº":6206,"åģļä¸ĢäºĽ":6207,"çļĦå®ļä¹ī":6208,"åĮ¹éħį":6209,"è´·":6210,"èķ´åĲ«":6211,"åĩĮ":6212,"å®ĥä»¬åľ¨":6213,"DNA":6214,"éľĢè¦ģåľ¨":6215,"æī¿æĭħ":6216,"åĩºçİ°åľ¨":6217,"å°±èĥ½":6218,"ä¹Ĳè§Ĥ":6219,"è¢Ń":6220,"çļĦç¾İæĻ¯":6221,"éĵģå¡Ķ":6222,"æ·±æ·±":6223,"ç¼ĸç¨ĭè¯Ńè¨Ģ":6224,"ç»ĺçĶ»":6225,"æĹĭè½¬":6226,"åı£åı·":6227,"ç»Ŀå¯¹":6228,"çļĦè§ĤçĤ¹":6229,"ä¸»æ¼Ķ":6230,"ä¸ªåŃĹ":6231,"çĳŁ":6232,"éļ¾é¢ĺ":6233,"åŃ¦ä¹łæĸ°":6234,"åĲİæĿ¥":6235,"ç¾İåĽ½æĢ»ç»Ł":6236,"åħ¶ä¸Ńä¸Ģä¸ª":6237,"åĬŀæ³ķ":6238,"æĭ¥åłµ":6239,"åĴĮå¯¹":6240,"å¯¹æĸĩæľ¬éĶĻè¯¯è¿Ľè¡Į":6241,"æ¨ª":6242,"åģļèµ·":6243,"éĿ¢ç²ī":6244,"èĢģäºº":6245,"åĲ«éĩı":6246,"ç»Ļä½łä¸¤ä¸ª":6247,"è®©ä»ĸä»¬":6248,"ç±»ä¼¼äºİ":6249,"éĹ¹":6250,"ä¿¡çĶ¨":6251,"åĿ¡":6252,"åĽłä¸ºæĪĳ":6253,"åĽ´ç»ķ":6254,"å¯¹è¯Ŀä¸Ń":6255,"åķ¦":6256,"é£İåĲ¹":6257,"çĶŁæĪĲä¸Ģé¦ĸ":6258,"çĶ·äºº":6259,"å¹¶å¯¹":6260,"æµĨ":6261,"çŃīå¤ļç§į":6262,"æ²³æµģ":6263,"æĸĩæľ¬çºłéĶĻ":6264,"AP":6265,"æĢĴ":6266,"çľĭçĿĢ":6267,"åħ¼":6268,"å¹²æĹ±":6269,"ç¼ĸè¾ĳä¸ĭéĿ¢":6270,"æĿľ":6271,"åĴĮå°ı":6272,"å¸ħ":6273,"è·Łè¸ª":6274,"åľĨå½¢":6275,"åĴĮä½¿çĶ¨":6276,"æĹĭå¾ĭ":6277,"è½¨éģĵ":6278,"è¿½æº¯":6279,"åħĥéĴ±":6280,"ä¸´åºĬ":6281,"æĶ¾ç½®":6282,"äººå·¥æĻºèĥ½å°Ĩ":6283,"èĢĲå¿ĥ":6284,"å¦ĤæŀľæĤ¨éľĢè¦ģ":6285,"çĶŁæĪĲä»ĸä»¬ä¹ĭéĹ´":6286,"è¦ģæ±Ĥå¯¹è¯ĿåĨħå®¹":6287,"è¯¦ç»Ĩä¸°å¯Į":6288,"è§Ĵèī²ä¿¡æģ¯å¦Ĥä¸ĭ":6289,"ç»Ļä½łä¸¤ä¸ªè§Ĵèī²ä¿¡æģ¯å¦Ĥä¸ĭ":6290,"çĶŁæĪĲä»ĸä»¬ä¹ĭéĹ´çļĦä¸Ģæ®µå¯¹è¯Ŀ":6291,"è¦ģæ±Ĥå¯¹è¯ĿåĨħå®¹è¯¦ç»Ĩä¸°å¯Į":6292,"éĽĩ":6293,"1000":6294,"æŀļ":6295,"ä»¥éģ¿åħį":6296,"è¾¾æĪĲ":6297,"¬éĹ´":6298,"æł¼å¼ı":6299,"Ġä»ĸ":6300,"æĶ¹éĿ©":6301,"èĤĿ":6302,"æľĢéĩįè¦ģçļĦæĺ¯":6303,"Ġè¿Ļä¸ª":6304,"ç½Ĺé©¬":6305,"äºĨä¸Ģåľº":6306,"èľľèľĤ":6307,"æ°Ķè±¡":6308,"åħ±åĲĮåĬªåĬĽ":6309,"æłĩçĤ¹ç¬¦åı·":6310,"æĹłæķ°":6311,"æ¯Ķçī¹":6312,"ç²¾èĩ´":6313,"å®¢è§Ĥ":6314,"çļĦæĢĿæĥ³":6315,"çļĦçĤ":6316,"æĢ§éĹ®é¢ĺ":6317,"æ¹¾":6318,"çľĭäºĨ":6319,"å·²ç»ıåľ¨":6320,"åĢ¡":6321,"å¿ĥè¡Ģç®¡":6322,"ç¿»è¯ĳæĪĲçİ°ä»£":6323,"èĬĤçľģ":6324,"æłĳåı¶":6325,"éĢĲæŃ¥":6326,"åħ¨çĲĥæ°ĶåĢĻåıĺåĮĸ":6327,"çĶŁåĳ½çļĦ":6328,"ç¬Ķè®°":6329,"ĸæģ¯åľ°":6330,"åħĭæĸ¯":6331,"æľºåĻ¨åŃ¦ä¹łåĴĮ":6332,"åģļä»Ģä¹Ī":6333,"ä¿¡æģ¯åĴĮ":6334,"åĨĽäºĭ":6335,"äººå·¥æĻºèĥ½æĬĢæľ¯çļĦ":6336,"ç¿»è¯ĳæĪĲæĸĩè¨Ģæĸĩ":6337,"å¼¯":6338,"ç»ĦæĪĲçļĦ":6339,"èįīåİŁ":6340,"è¿ĩæ»¤":6341,"åħįè´¹":6342,"ä¸Ńåįİ":6343,"è®©æĤ¨":6344,"çļĦæĤ":6345,"ç®Ģæĺİ":6346,"æĺ¯ä»Ģä¹ĪæĦıæĢĿ":6347,"æľīå¤ļå°ĳ":6348,"æľīäºĨ":6349,"ä¸ĭåİ»":6350,"å¯¦":6351,"çĶŁäº§åĬĽ":6352,"éĨĭ":6353,"å¦ĤæŀľæĤ¨åĸľæ¬¢":6354,"ç»ĵæŀĦåĴĮ":6355,"å®ĿèĹı":6356,"èµ¢å¾ĹäºĨ":6357,"æĺ¯ä¸Ģä¸ªéĿŀå¸¸":6358,"æł¹æį®ä»¥ä¸Ĭ":6359,"...":6360,"è¯ŃæĢģ":6361,"æĪĳçĽ¸ä¿¡":6362,"è¿Ļä¸ªæĸĩæľ¬":6363,"ä¸ĸçķĮçļĦ":6364,"ä¸įåºĶè¯¥":6365,"åĳ½åĲį":6366,"éħįåĲĪ":6367,"åľ¨è¿Ļç§į":6368,"åı¥åŃĲä¸ŃçļĦ":6369,"èº«ä¸Ĭ":6370,"è¿Ļç¯ĩæĸĩç«łä¸»è¦ģ":6371,"åĲ¦å®ļ":6372,"æĿ¥è¿Ľè¡Į":6373,"å¥¹åľ¨":6374,"é«ĺæ¸©":6375,"èģĶçĽŁ":6376,"è¥¿çĵľ":6377,"ç¿»è¯ĳæĪĲçİ°ä»£æĸĩ":6378,"ä¹ĭæĥħ":6379,"çĮ´":6380,"æĲľç´¢å¼ķæĵİ":6381,"èīºæľ¯åĵģ":6382,"çĽ¸åĲĮçļĦ":6383,"æ»ĭ":6384,"è¶ĬæĿ¥è¶Ĭå¤ļçļĦ":6385,"çº¿ä¸Ĭ":6386,"è¡¨è¾¾æĸ¹å¼ı":6387,"çºªå¿µ":6388,"éĢĽ":6389,"æĽ´å¤§çļĦ":6390,"é¢ĳç¹ģ":6391,"çļĦæ³¨æĦı":6392,"è¿ŀè´¯":6393,"è¿½éĢĲ":6394,"åĩıè½»åİĭåĬĽ":6395,"ç»ĵå±Ģ":6396,"éħ·":6397,"å¤ĸæĺŁ":6398,"ç°":6399}